fc
fe
00
ff
02
02
fc
fc
fd
01
fb
00
ff
fd
00
fc
02
05
01
fd
02
03
05
fb
fa
03
03
fe
fb
04
ff
05
03
fe
fd
05
03
fd
fc
04
fe
fd
fe
fb
01
fa
02
05
03
ff
fe
fb
00
ff
02
fb
04
02
ff
05
01
00
00
03
fb
fc
fe
04
04
fe
00
fd
fd
02
01
04
03
04
02
fc
fd
04
02
ff
00
00
03
02
fd
fc
04
02
fe
03
02
03
00
ff
01
fe
fe
fc
ff
01
fc
fb
00
ff
00
fb
fc
fd
02
ff
fb
05
03
fd
05
00
03
00
06
fb
fb
01
05
fe
00
03
01
03
ff
05
fb
03
fc
00
fd
05
ff
03
04
fe
02
fc
fc
ff
05
fe
03
04
fd
04
fb
05
fe
05
01
03
fe
fe
fc
fb
04
ff
05
05
fe
ff
ff
04
00
fd
01
01
01
fc
03
04
05
00
00
01
05
03
01
fe
fe
fb
04
ff
05
fc
04
fd
01
02
02
03
05
00
02
01
02
05
00
fd
03
04
fd
fc
04
00
fd
fd
ff
fc
00
02
fe
ff
fe
fe
02
05
04
fe
05
03
05
01
fd
03
fc
fc
fb
05
fe
05
fd
00
01
ff
ff
fe
05
03
02
ff
fe
fc
02
ff
fc
02
fe
01
01
fc
fd
05
fb
02
06
ff
fd
03
05
ff
01
03
fc
ff
01
fd
02
03
fe
fe
fc
fd
04
fc
fa
00
01
00
03
fd
fd
03
fc
fb
fc
04
fe
02
fd
fd
01
02
fd
02
fb
02
00
06
02
ff
06
fd
01
02
fe
00
00
00
02
fe
fb
04
02
fc
05
ff
fd
01
fd
fc
00
fb
03
03
01
01
01
fb
fb
06
02
02
fc
fd
04
ff
ff
fb
04
fd
00
00
05
fc
01
fe
fb
03
00
02
05
04
ff
02
fc
02
ff
00
fb
fe
04
fc
fe
03
01
01
fd
05
01
fb
fd
01
02
01
11
fc
f5
01
f7
f0
f9
0b
fc
f4
fb
0c
0a
07
f4
ed
08
f8
ff
fd
00
0c
f2
0b
06
0c
fc
f8
fa
05
06
f4
0d
01
f8
ff
f5
f9
ff
0f
00
f0
ff
07
0b
0f
f5
f4
08
f5
ff
fb
06
0f
ee
0b
06
0c
fb
f1
f3
0a
0d
f4
f8
18
10
00
0e
f8
ff
e9
03
14
fc
12
02
0d
0d
11
05
f2
f2
fc
ff
f0
f4
00
0b
fd
fe
fd
0c
17
0e
06
f9
06
06
ff
0f
04
03
f0
ff
0b
fc
03
fb
11
11
05
ff
f0
f7
fc
fd
ef
00
04
09
fa
01
fc
0b
0f
0d
01
02
fe
fc
02
ff
fe
03
ff
ff
02
fe
02
fc
ff
02
05
ff
ff
00
03
fb
03
ff
fc
04
03
ff
04
05
fd
00
02
fd
02
02
fd
fd
00
fb
fe
05
fe
fe
00
00
fd
02
ff
fc
03
fe
fb
fe
01
03
05
00
fb
01
ff
05
04
ff
04
03
04
04
04
04
fd
05
fb
03
ff
03
ff
00
05
fe
00
fc
ff
05
03
fb
03
04
fd
05
fe
fd
00
fc
fc
04
05
03
fc
fc
ff
fb
02
fe
05
04
fd
fd
00
02
05
01
03
fd
02
fd
ff
02
04
02
05
05
fe
05
fd
04
05
fe
03
02
fe
05
fd
04
fb
fd
ff
fd
03
05
01
01
00
02
fb
00
fd
05
fe
02
fd
ff
fa
04
fb
06
04
04
00
02
fe
fb
01
05
ff
05
00
03
00
00
05
ff
fe
fc
fb
03
04
ff
fc
fb
fb
01
05
ff
04
fd
ff
04
04
fa
01
03
04
02
03
fb
fc
fd
04
04
02
00
02
04
01
ff
fe
03
03
03
02
fe
05
03
fd
05
05
fb
05
fb
01
fb
00
03
fc
fd
fb
fe
00
fe
00
02
fc
fb
fe
fe
fb
02
fd
01
03
ff
03
01
01
fd
03
fe
00
03
fe
01
04
01
fc
00
04
fc
03
fe
ff
03
01
ff
fd
fc
fd
02
fc
fb
fe
fb
fc
fe
ff
03
01
02
01
01
05
03
fe
05
03
02
02
05
01
ff
04
ff
01
fc
03
03
03
00
05
05
fe
ff
fc
04
fc
04
ff
04
04
05
fa
01
fe
02
06
04
04
fb
fd
fb
02
00
fb
05
03
01
03
ff
fd
fb
04
00
01
fc
04
02
fd
fc
05
04
00
02
fe
ff
fb
05
fe
04
fd
05
00
ff
02
00
fc
fb
ff
fd
04
fc
05
fd
04
03
02
00
fe
02
01
fe
05
03
fd
fe
01
02
ff
fe
01
fb
01
03
04
fd
fc
06
fb
fe
05
ff
04
01
04
03
00
02
fe
05
fd
fb
fd
fd
01
05
03
fa
00
00
ff
03
fc
01
fb
02
ff
02
01
01
01
ff
ff
02
05
fd
fe
05
05
fc
fd
ff
05
02
02
04
04
fe
fc
02
fc
fd
03
05
01
05
03
fb
fe
ff
03
04
fe
fd
05
fb
00
05
fb
02
ff
03
fd
03
01
02
fb
fd
00
ff
ff
05
01
01
01
04
03
fb
05
ff
fb
fb
fe
ff
05
00
05
fb
04
03
fb
fe
04
fc
02
fc
02
ff
05
03
fc
00
04
fe
05
fe
05
04
fe
01
04
fc
fe
00
03
11
fb
fe
07
f5
ff
fc
09
01
f0
02
10
08
03
f2
f1
04
fc
f3
01
fc
11
00
09
04
0e
01
00
f1
04
ff
f3
0e
f6
f5
fd
f7
fa
f5
0c
02
f5
fb
07
0e
04
f4
f0
fe
f4
f3
04
06
08
02
10
05
05
02
fe
f6
05
0a
01
07
00
ef
f5
f1
e8
f0
ff
00
e1
fd
15
19
13
f4
fb
05
e9
ea
fb
0c
0f
f6
17
08
19
04
06
ee
19
10
ef
11
02
ef
f6
f3
df
ec
03
04
e4
00
1c
1c
15
f7
f4
07
e3
e5
02
09
18
ee
19
06
18
ff
06
ec
1a
10
f0
0a
fe
f0
07
fb
ee
f3
1b
04
ec
02
15
16
0e
f6
ec
00
f4
f0
03
10
11
f9
12
09
18
00
ef
f3
0e
09
f5
16
f4
e7
03
fa
e1
e7
22
04
e0
fb
1e
16
16
ea
ef
f4
eb
e5
fe
07
17
f6
22
06
20
04
f8
e4
18
03
fe
20
f8
f0
07
f6
e5
e8
27
fd
e1
fd
19
17
17
e2
e2
fa
ec
e4
00
fa
1c
ed
23
0a
20
fc
f1
dd
13
04
f5
12
03
e4
03
e4
df
e6
2d
00
d9
05
1a
1d
1c
db
e4
06
fd
e8
03
05
0c
07
13
00
26
fc
ec
f5
1a
14
ee
11
01
d8
00
de
d6
d9
31
fe
cf
00
2a
24
26
d1
d3
06
fd
dc
ff
fa
0b
08
0f
08
35
fe
eb
f6
1c
12
f0
12
06
df
ff
e9
d9
dd
3a
fe
d7
01
21
2a
1d
e7
dd
0a
fa
ee
ff
fa
13
05
11
ff
26
02
e9
f5
22
0e
f4
04
19
fb
03
fc
dc
ff
0d
fe
04
02
05
1f
fe
05
05
fa
fa
01
fb
00
04
e5
fe
f7
f9
04
fb
f7
08
ee
f8
fa
1f
f5
f4
f3
dd
e4
fd
fe
02
fd
21
2d
1f
04
08
f6
ea
d2
05
02
07
fd
26
fc
13
01
09
f2
18
fd
e5
e7
16
00
d5
f8
dc
dd
f7
05
fa
ff
35
24
32
05
fe
06
ed
cc
04
ff
ed
05
0a
15
19
fc
f0
15
27
16
f9
fe
ff
f8
e6
f7
de
d2
1c
fb
e0
00
37
2a
28
e6
de
ff
02
dd
ff
06
0d
05
0c
16
2c
fc
d3
00
1b
0e
01
28
e8
f2
0e
ea
ea
df
30
02
d1
03
21
1b
03
d9
d4
fe
f7
ed
00
08
1d
eb
26
0f
23
04
de
d7
04
e8
fd
28
eb
e7
0a
e7
e5
de
2a
03
d9
03
18
1c
15
d9
d9
f5
ef
ed
fb
07
1e
df
23
06
23
04
eb
d7
08
e5
f5
1f
e8
ec
08
f0
ec
e3
29
fd
d6
fb
19
1a
1b
df
da
f8
e9
e2
ff
02
1f
e7
1b
00
1a
00
e8
df
05
ea
fc
1d
ef
ef
fc
f2
e9
eb
14
fd
ea
01
19
02
13
ec
e5
fd
ee
ee
03
01
18
f7
1a
fc
1d
05
fa
e8
0b
fc
fa
17
ff
f3
ed
ed
e7
e1
fa
00
f1
fd
19
10
20
e1
f7
02
ea
dc
fc
03
1b
f1
1a
03
20
05
03
e3
06
01
f2
14
fb
f1
fb
f8
ef
eb
e8
fc
ff
fb
19
08
14
e8
ff
00
ef
e8
ff
fd
14
ed
15
09
13
fd
05
ef
0d
04
ea
fe
ff
04
03
fe
05
fe
03
00
fb
fb
fb
02
fe
02
02
02
ff
ff
ff
00
fd
ff
fb
fc
04
ff
02
fd
fe
01
04
00
01
04
fb
00
00
00
fc
fc
04
ff
ff
01
05
00
04
02
fb
ff
04
02
02
fc
ff
04
05
04
02
01
fd
04
01
05
02
fe
03
04
fb
fd
04
05
01
05
ff
fb
fe
fc
fd
04
03
fc
02
fc
00
fd
ff
fe
04
02
02
fe
fe
fb
fe
04
fb
fa
03
05
fd
fc
ff
03
01
04
fb
01
fd
04
04
ff
05
00
03
04
fc
ff
02
fe
02
fd
05
02
04
fe
fb
04
04
fd
ff
ff
00
02
ff
05
fe
fe
fd
ff
fb
04
02
03
05
ff
03
01
05
02
fb
04
00
05
02
02
fd
ff
fd
04
03
ff
04
fd
fc
00
fc
fb
06
fe
fd
fc
fa
02
fd
ff
fc
fd
01
06
00
fd
01
02
fc
fb
03
06
ff
04
00
0f
f6
f8
fc
fc
ec
fd
06
fc
f4
ff
0e
05
08
fe
f3
fb
f2
ff
03
07
12
f8
0c
fc
0b
fa
f7
f8
03
02
fd
ff
17
f7
fe
f3
f1
e5
fd
00
f9
05
1f
05
11
f0
f8
13
07
ea
00
ee
f5
10
0c
03
1c
fe
fc
0a
fe
11
f0
10
0a
fa
03
ee
ef
f0
0d
fc
ee
03
15
0e
0d
ed
ec
0b
08
ee
00
fc
06
0a
0f
f8
14
03
f0
fa
05
0a
ea
02
e9
f7
06
fe
f7
f7
0b
02
f0
02
07
0e
07
f7
f8
fd
fa
f7
02
fb
0d
f9
07
03
06
fb
d9
f6
00
00
fd
0d
07
ec
07
f8
e4
eb
11
04
d9
01
1a
14
15
f4
f0
fb
e9
dc
fc
01
16
f1
19
04
19
05
f3
ed
0c
fa
01
16
04
de
00
ef
dd
e3
1f
fd
ce
04
26
27
21
df
de
f7
db
df
fb
fb
27
e3
2f
06
2e
00
e9
da
1c
04
fb
0e
eb
e4
f8
00
d9
da
1d
00
dd
00
2b
12
2f
e7
ef
fb
dc
e0
fd
17
18
ea
27
16
22
fb
e2
de
1f
0d
14
fe
e9
f9
f1
0f
ce
d4
ff
fc
f4
fe
28
fd
2d
e5
f9
fd
cc
e2
fd
16
04
e8
1c
19
0d
fe
eb
ed
2c
1f
1e
06
ed
eb
fa
0b
c2
c7
08
fd
ef
05
36
0e
3d
e2
f5
f2
bf
d2
ff
11
17
cd
32
19
29
03
e8
e2
3d
20
24
0c
fb
e9
07
0a
af
c3
16
05
ec
04
32
1c
3a
e1
f6
f5
c9
cc
02
ff
16
d9
31
18
2d
fe
e3
e8
34
24
25
12
0d
de
00
06
a5
cf
13
fd
f1
04
28
23
28
e4
04
05
d3
b9
04
f7
17
df
32
0f
29
fe
e8
e4
30
11
0e
16
18
e1
1b
f8
9e
e2
03
01
0b
05
1a
30
12
e3
12
f0
d1
d8
fb
f2
13
c3
24
04
0a
04
ee
cb
0e
01
fc
16
0d
e0
14
02
a3
dd
11
fe
02
ff
1d
30
11
f0
0e
e2
d6
ec
00
ec
20
b7
1f
0c
09
01
dd
c6
10
fa
1f
16
12
e5
12
fc
bf
cb
fe
04
10
fd
19
3c
14
f6
13
d7
c1
d4
fc
e0
1f
b8
39
05
ff
fa
ec
dd
fc
f6
01
14
1d
f5
f4
f4
ca
d4
f6
fb
1a
02
0f
43
10
03
17
e7
d8
d8
fd
ee
1a
e7
30
09
05
04
f9
e3
fd
f9
02
14
05
f7
e7
03
ed
d5
f6
fc
00
ff
02
38
fe
ff
f4
ea
f4
d5
00
06
25
fd
36
0a
06
fa
f8
e1
f5
0a
10
1f
f7
02
f2
03
ff
cc
06
fe
ef
fd
01
33
00
fc
e2
f3
ff
cd
fb
14
23
08
30
02
10
fe
09
e3
f0
05
fd
26
f5
f1
ef
f5
fb
be
0d
ff
e4
ff
09
36
f4
df
e0
ee
f7
f6
fc
17
30
fa
38
e8
14
fe
02
e3
e8
fb
fe
2a
e7
f5
08
00
f5
ba
0f
02
e0
03
11
28
0b
f0
e0
f8
e8
03
fe
15
29
f4
34
f4
1d
fa
f7
e0
fc
fa
0d
26
da
e9
1e
03
ef
cb
21
01
dc
04
14
11
09
de
cc
f7
fa
0e
ff
0f
29
ef
2b
f4
21
fa
f5
d8
04
fe
10
2f
db
e5
06
00
e7
cd
27
05
d5
ff
19
16
09
d2
c9
f3
f4
0a
fb
11
2c
ee
2a
04
28
02
f0
d6
01
ed
08
21
e0
eb
f0
ff
dd
ce
19
fd
e2
fc
24
16
25
e1
e4
f6
de
f4
04
07
28
f1
27
13
29
04
ec
de
05
fc
09
f3
f8
03
ff
0d
f6
e2
f3
00
09
05
0e
13
24
0a
0a
0a
e4
f8
02
05
fd
e2
03
00
02
fc
f7
04
05
10
13
f9
07
0d
08
01
f0
f1
fa
00
08
fc
fa
05
1c
07
11
15
e5
f9
fb
0c
f5
f4
f2
fe
f5
03
16
09
07
13
0f
02
fe
ff
04
fe
ff
04
04
01
fc
01
fc
04
00
01
ff
00
00
fc
05
00
ff
05
fd
05
01
fb
01
04
05
04
fe
04
fd
00
03
04
fc
fd
03
fe
ff
fc
fd
05
fd
03
00
03
fe
fe
04
04
03
04
01
00
ff
ff
fc
03
02
fe
03
05
02
fe
01
05
03
fd
04
fd
fd
fe
03
fe
fe
ff
00
fa
fe
fe
00
04
ff
02
fe
00
00
03
01
05
00
ff
ff
fa
fd
ff
00
ff
fe
04
04
04
04
01
00
01
fe
02
00
fb
05
04
fe
fc
03
fb
03
03
03
04
00
00
fa
ff
01
fa
0e
f3
0d
fb
f7
f8
fc
02
07
ff
f8
04
f9
0e
10
f8
ef
04
05
02
f7
ea
09
07
fa
02
04
f8
f4
fa
f2
0b
0f
fb
fa
f3
f1
eb
fc
05
06
fc
14
10
0d
f5
03
13
04
e0
02
f0
f6
0b
1a
08
14
fb
0d
08
04
0e
f4
12
00
fa
fd
f0
f1
07
09
03
fa
00
fb
18
fd
ee
f9
ff
06
e7
02
02
14
08
1e
f8
03
00
0b
f0
f3
ff
f1
f7
f9
11
10
12
ed
f5
05
fc
09
00
f6
13
ff
fd
07
e6
fa
ee
01
fb
f3
fb
0d
12
20
fc
0a
e7
1c
ef
21
f3
05
09
0c
15
d0
dd
08
ff
fe
fb
01
25
04
f2
05
e9
e3
ed
00
0a
0b
f0
22
23
20
01
12
e8
2e
ef
1b
f3
00
00
04
1e
c4
dc
04
03
04
fc
01
28
04
04
07
e5
e9
ef
04
14
06
f0
17
1d
1d
04
09
da
40
02
18
e3
04
0a
02
01
b7
d5
05
02
04
fb
09
26
15
f3
06
03
e9
db
fe
2b
f9
05
13
0d
21
04
12
e6
5d
21
14
e6
ff
09
f6
f9
b7
d1
fb
05
01
fd
19
04
2a
e7
1c
10
db
d2
fc
3b
f8
f4
15
13
15
01
04
f7
47
2d
1d
e5
fa
11
fe
00
c1
cb
01
03
0d
fe
14
fa
1d
e0
13
14
f0
d8
05
3d
ff
fc
16
03
17
00
13
f1
38
33
1e
dc
f2
1b
03
10
b6
d6
13
05
15
fd
0e
00
24
e4
11
13
ee
e1
01
35
f5
ff
12
0c
28
ff
0f
f6
3e
33
22
dd
07
12
0b
05
9c
d4
02
01
1b
00
08
24
1e
e5
1f
13
e5
ce
fa
2e
00
01
13
09
1d
fe
11
e2
38
2a
09
ec
05
08
01
f7
83
c0
00
fc
12
fb
12
2c
32
f0
19
0e
eb
d6
02
2e
fd
f4
0f
09
23
fd
ff
e2
3b
27
07
ef
01
0e
02
f5
8d
cb
02
fb
10
03
08
36
1e
f5
10
06
fa
e5
04
21
f6
fa
02
f9
20
fc
ff
d8
25
29
14
f3
05
0b
0b
e4
bc
c4
fc
ff
1a
fc
01
33
11
f7
14
07
f7
e1
fa
0b
02
02
09
ea
1b
fe
08
d4
06
16
0e
f4
0a
07
07
f7
c4
c6
f8
fa
21
fa
07
37
13
00
19
01
fa
e8
04
f4
f9
06
04
ea
0f
fb
04
e1
f6
14
0d
00
ff
06
ff
0b
e9
da
f5
02
11
ff
ff
25
04
f9
02
1a
08
e0
fe
03
02
0e
00
ed
13
03
0b
e2
f4
13
00
12
f6
07
04
03
08
cc
f7
05
fa
fb
f6
29
f8
ff
f0
10
0c
db
02
07
12
18
1d
f0
21
03
18
e0
e3
0c
00
0f
f8
0b
f9
fd
0b
d7
06
02
fd
fb
f0
31
eb
f4
ea
00
09
ee
fc
10
22
09
28
f3
1a
fb
09
e3
df
0b
0b
05
f5
11
f8
f8
fa
e5
01
fe
fb
fc
e9
2b
dd
f2
e5
06
16
ec
fb
1e
13
15
1a
f1
19
fa
16
f1
e8
0e
0f
1c
e1
15
e8
fc
0a
e7
0d
02
e9
fe
f7
0d
ec
f4
d2
f9
18
ec
00
0e
27
16
27
ea
0d
00
0f
f5
e1
0b
0c
31
d4
04
eb
03
02
de
21
fa
d9
fc
0a
fe
f8
eb
be
f4
18
04
04
04
27
10
26
00
0f
00
fb
f1
e9
fe
06
3a
d9
02
01
ef
f2
d5
2b
fb
d4
fc
12
f9
04
ef
b2
e7
0b
12
02
03
24
0a
1f
ee
17
fc
03
e6
ef
e0
ff
0f
ed
0a
fb
ed
ef
d9
11
03
ef
04
07
0c
0a
f3
e9
f7
03
03
03
14
0b
03
1a
fd
07
03
ff
05
ef
06
02
ee
ff
08
fc
10
ea
00
fb
02
10
fe
f9
03
04
09
fc
12
07
06
04
fd
ef
05
ed
08
f3
ff
0a
18
09
22
08
06
f7
f8
f6
04
ed
0e
03
03
f8
fe
04
fd
06
ec
f5
10
15
e7
04
05
0c
10
0c
06
0b
02
ff
18
00
1d
11
03
ff
fe
fc
fe
02
ff
ff
fb
ff
02
05
03
fe
02
00
03
06
fd
00
03
fe
fc
03
fd
fd
05
00
02
ff
04
fd
fd
fe
fe
05
fb
fb
fc
ff
02
fd
fe
02
fe
fe
00
02
00
01
00
fe
fb
02
02
02
04
03
02
05
04
03
ff
03
fa
10
12
0c
06
0e
f8
04
04
0f
04
f6
0d
f9
fa
0f
01
07
02
fd
05
eb
04
05
f2
11
02
10
f3
0c
f2
f3
fe
0c
10
17
08
03
00
01
02
0e
fa
eb
07
f6
16
18
03
e3
08
00
fa
ec
ec
00
02
fe
fc
10
f3
0c
ee
f6
fc
07
15
1d
0d
0e
0a
f5
03
19
fd
e2
1b
ed
ff
1d
18
01
f9
01
0c
eb
03
0a
fd
0d
fe
1d
f5
17
e7
ed
f7
fa
10
24
06
14
f5
0f
05
0f
fc
f8
27
ea
ea
11
f4
fc
0a
fb
f2
00
de
04
f4
1c
03
09
de
12
df
06
ec
f0
19
20
16
fc
e4
f7
01
2a
fc
f9
23
ec
04
21
eb
e7
05
02
ec
fa
dd
0a
1c
2a
05
12
d4
1c
f7
14
df
e2
24
13
1b
dc
d7
e3
02
2c
02
04
1e
fb
15
20
f5
df
ef
fb
fe
f0
df
0c
1b
18
04
14
dd
2b
0b
1f
dd
e9
20
0e
08
d5
d9
01
05
19
01
fd
16
02
09
13
ff
ff
00
fd
0e
fd
fc
f5
05
05
00
0b
e5
36
06
0c
e4
e5
24
1a
03
d1
d3
08
ff
16
ff
12
07
0f
01
13
00
f3
ff
05
10
00
e9
06
fe
15
03
10
e1
37
08
08
e5
e2
28
11
eb
d4
cb
03
fd
1b
fc
17
05
1c
fe
1a
19
fb
ec
ff
22
f7
f9
fe
01
0a
fe
19
f0
34
1c
08
e2
eb
35
10
f2
d8
bd
0d
fc
19
04
13
04
19
f3
1b
06
fa
df
fb
24
07
fb
12
fa
14
ff
23
eb
2e
19
fe
d8
fe
35
ff
f3
df
cd
15
02
17
fd
0e
0b
12
f4
12
0d
0c
ed
03
2e
f8
00
fe
fe
04
01
23
fc
2b
22
0b
dc
03
3a
14
f6
d3
d3
14
fc
1b
00
13
0f
16
01
19
fb
07
fe
00
22
f3
04
ff
fa
fd
fc
20
f7
1c
0c
01
e1
0b
2c
1b
ef
c8
de
0e
fd
1b
fa
12
15
19
01
1e
f4
03
00
fe
18
f5
f3
f9
fc
fd
03
19
f5
14
07
f7
ed
16
2d
13
ea
ca
dc
09
02
26
03
18
0b
1b
04
21
f1
0a
f0
04
18
fe
01
00
f9
f5
03
18
ed
04
0c
f3
f2
1b
23
00
e3
cf
dc
0a
05
1c
00
0e
1a
0a
00
1c
00
19
e7
04
20
ff
08
01
f8
ff
01
1e
fa
fa
09
f8
fe
07
17
0b
e9
e7
cf
04
00
22
02
11
00
0e
05
1b
03
19
f1
ff
0a
03
09
09
f9
0d
02
16
f3
df
07
fc
0e
fa
1f
ff
f6
f6
e2
f8
02
12
00
11
f8
0b
06
0a
1a
14
f4
fa
11
0a
0e
0a
f2
13
f9
09
fa
da
10
fc
06
fc
23
fc
f8
ff
db
ee
fb
11
fe
05
03
03
0d
0c
18
12
eb
04
17
05
15
0d
fa
16
fe
13
fe
dc
15
fd
15
fd
1b
06
f3
06
db
01
fb
1b
fd
04
f6
f4
0b
f7
ff
13
11
03
01
18
01
18
02
0f
fd
07
f5
df
11
01
22
f0
17
f8
e7
fc
e4
0d
fb
08
02
0d
e4
f3
06
ec
f6
0d
29
04
f7
14
04
0b
fb
07
00
fc
f6
ce
02
02
2a
ea
06
e8
eb
f7
e2
10
ff
fc
02
02
00
df
03
de
fa
18
19
fe
07
20
0d
1b
fd
01
01
ff
f9
cc
01
f2
2d
e8
fa
e7
f2
fe
e1
24
01
f6
fd
07
f3
e1
f8
d1
f3
24
26
03
0c
20
08
03
fd
0a
f9
f9
ff
d2
07
f6
45
da
ec
e8
e8
06
f8
25
00
ec
fb
05
f3
dc
f0
b8
eb
24
15
02
0d
38
08
14
f3
04
00
fd
02
d3
02
fa
18
e8
32
f0
02
19
08
0f
ff
03
fe
e3
e9
cf
fa
d9
fe
3d
fb
00
16
18
26
0b
f8
f2
03
1c
1c
df
04
f3
06
f0
2c
04
0c
0b
09
00
03
05
fb
ea
ec
f6
0e
ed
10
3e
e2
03
1f
fe
2a
05
ff
f6
fe
20
12
f3
12
fd
10
02
13
0f
f0
0d
ef
f5
fe
ee
04
fd
15
0e
0d
e9
19
29
e1
fd
14
ef
1b
08
f5
04
fc
1e
0a
f6
0c
e1
14
f0
fd
12
fa
eb
e0
0f
02
ea
01
16
fb
1a
f1
f9
f0
fd
0b
04
fe
05
f6
0a
ee
14
01
f2
f7
fd
03
f5
01
fb
fc
fc
fe
03
fe
00
fe
02
fe
fc
00
05
fe
fc
01
ff
fb
00
05
01
fd
02
ff
01
00
ff
05
fc
00
02
fe
05
fd
00
05
04
02
fe
05
02
02
02
04
02
06
02
fc
ff
02
01
04
fb
fe
fa
fc
02
05
fe
fe
03
ff
05
07
0e
0c
10
fe
01
f0
fe
00
0f
fb
07
06
06
18
0e
00
eb
fe
01
f4
01
ed
13
04
03
04
07
f2
00
f4
fd
ef
12
1a
16
16
ff
ff
eb
03
2b
02
f1
04
f1
12
23
18
f6
01
fc
0c
f1
f3
06
0d
01
fb
17
f5
0d
0e
05
e1
f2
1e
20
27
02
ea
fd
04
20
01
ff
1a
fc
f8
25
fa
ec
17
04
ee
f4
cc
fe
27
1e
fe
00
db
20
f7
2c
df
eb
1b
2c
15
0e
f1
ee
02
2b
fa
dd
38
da
17
3b
00
db
25
fb
f2
e1
ed
00
21
0b
03
0e
e2
18
e2
03
d3
e4
1f
28
09
f1
df
04
ff
1d
04
ee
28
f2
0f
20
01
ef
1b
01
f4
ed
f2
f6
11
fe
fc
06
e6
18
f5
06
dd
d2
23
14
06
e8
e5
11
00
0b
ff
f1
0d
02
06
15
11
f2
0c
fa
fd
f5
fc
ff
0a
f1
02
03
fb
12
fd
02
e6
cc
13
0b
0d
e0
ed
22
03
03
01
fb
07
09
f8
12
11
f1
05
04
04
f8
f9
f9
09
04
00
fa
0c
15
01
fb
ec
d3
1e
02
fe
ee
eb
22
00
ff
04
f3
05
07
fb
10
02
fc
03
ff
13
01
02
06
0e
02
01
fd
04
0e
05
fe
ed
df
17
f7
eb
f4
ed
10
f9
fc
fb
04
09
0d
ee
fd
f8
fe
f9
fb
19
0b
04
05
05
04
fd
02
16
16
17
fb
ed
ec
2a
03
ec
07
f4
04
fb
fb
ff
0c
01
15
f3
fd
ec
11
fe
01
17
f9
0e
f2
08
ee
fb
0f
26
1f
15
f1
f5
ef
37
04
e6
0b
f0
08
00
f4
01
11
fe
16
00
07
e7
05
fe
04
16
00
03
fd
fc
f1
01
13
22
1c
11
f0
f0
ff
20
09
e2
f0
df
03
ff
ee
02
18
0a
1c
f8
08
f7
0b
ff
02
15
fa
ff
f9
fc
ea
fe
0a
1e
1f
13
e7
fb
fe
1e
08
e8
e3
eb
0c
ff
f9
01
19
0b
12
f8
16
f3
17
fd
fb
15
0d
02
ff
ff
f4
03
07
15
0f
0f
ef
ef
0a
1f
0d
ed
e9
e2
07
fb
00
00
1a
0b
12
fe
21
f0
12
fd
fa
14
04
fd
08
05
f4
fb
09
09
0e
05
f9
f2
01
28
08
0a
e9
d5
fc
00
11
fb
14
05
0d
0b
22
fb
19
04
fc
20
0d
08
0c
08
00
02
0c
07
f0
17
f8
06
ff
1e
f7
03
ef
d4
fb
fa
13
fb
19
f2
0d
f4
0b
05
25
ff
fa
1e
07
0a
0b
f8
04
fd
08
10
e1
16
f9
11
fc
1a
f4
01
ef
d8
fa
ff
11
03
18
00
04
ff
03
02
15
09
00
25
ff
04
08
f7
11
02
ff
09
e3
1f
fd
1c
07
1c
fc
ff
f9
cf
06
02
15
ff
18
ff
fd
00
f3
00
19
1f
03
12
05
00
0f
f1
15
fb
08
fa
e2
10
fc
20
fe
18
ed
f3
01
e0
fd
fc
10
ff
12
f5
f8
16
e8
03
1c
12
01
12
0d
09
14
ed
0d
03
09
f0
df
16
ff
26
08
0d
e2
f0
fa
e1
0a
05
19
02
18
f2
f8
21
f5
0c
0f
12
ff
11
12
fa
0d
fc
01
fa
02
f2
d2
10
ea
23
00
00
e5
f6
01
f9
10
04
26
03
02
ee
ed
1b
ee
0a
19
19
fd
12
1c
f9
0d
fb
00
ff
f9
f8
d2
15
e2
36
e6
f4
e3
04
0a
f2
22
fe
19
fe
09
f4
db
07
e0
f0
16
22
04
0a
35
fa
16
06
fb
fa
ed
eb
d6
11
fe
3f
df
07
05
08
0a
f0
1d
01
04
fc
fc
00
e3
fb
d2
ea
24
08
fe
0e
35
11
20
ee
fb
fd
fe
fb
dd
03
fe
2d
d4
2b
13
0d
0e
f9
f9
ff
f1
04
f3
03
03
0f
e1
12
38
e1
01
30
18
2e
15
ee
fa
05
24
02
e5
0b
f3
20
ea
01
03
e5
21
02
f5
fc
f3
ff
fe
26
05
f5
ef
06
17
e4
03
1f
22
1a
29
ef
08
ff
10
06
f5
0a
fc
18
f0
fc
fe
fe
04
ef
09
05
f5
03
0e
0c
0f
f0
f7
e8
f7
00
01
fb
15
f2
1d
f1
12
03
f4
f7
fc
04
00
03
fd
fb
fe
00
05
03
05
fc
01
05
01
00
fb
01
05
fd
fe
01
02
03
fa
00
fd
fc
02
fe
04
00
00
fe
fb
ed
eb
0f
12
15
f1
eb
02
02
18
fe
ec
09
f1
05
13
11
01
f1
01
11
09
fa
17
18
10
02
0d
ef
02
12
fb
f1
ee
fb
0c
08
01
0a
1a
00
f2
fd
ef
14
ea
fe
0e
18
f2
0e
fe
06
fa
17
07
03
08
ff
fb
fe
0d
0c
f4
e5
11
08
30
32
f3
06
02
04
0f
fc
e7
20
ff
19
2c
2b
d5
20
fd
fd
e7
fc
ec
15
0d
ff
f9
fe
24
03
fa
d9
ef
14
1d
2e
05
08
13
fd
1d
fb
f8
16
f2
0d
22
0f
e6
13
fb
fc
f8
e7
01
24
1e
fe
f5
ee
0f
06
23
d7
ce
19
0e
1c
fd
13
1f
00
12
ff
e3
13
e6
1e
22
20
04
19
f7
01
ed
fb
f1
16
04
fb
fc
f5
fb
ff
0f
d8
d6
19
13
0f
f7
01
13
fe
13
fc
e7
1c
f1
15
16
18
ec
17
ff
fd
ef
fb
f9
0c
ef
03
fe
f2
00
06
ff
e3
ca
12
09
0d
f7
fd
13
f9
00
fa
f2
07
01
06
12
1a
f3
08
fc
03
f8
fa
05
10
ed
03
fc
05
fe
05
00
e5
c7
16
15
15
06
f9
12
02
ef
f9
ef
0c
ff
08
06
10
f3
01
03
0c
ff
05
09
18
fc
fa
04
0f
05
fc
f3
e7
d1
24
0b
17
10
ee
0d
00
eb
01
ed
03
04
03
10
fb
f1
f4
00
09
01
05
0c
0f
f1
fb
02
0f
09
fd
f1
e2
d3
12
04
f8
10
ee
fb
03
ee
fa
ea
07
05
09
0e
04
fc
f6
05
0a
ef
07
0d
19
ee
ff
0b
19
19
04
eb
f5
e9
15
01
f8
15
f1
fe
fc
e2
00
f7
05
08
06
0e
fe
fd
05
ff
11
f3
0c
04
15
ea
fa
0b
22
1d
00
e9
00
f0
15
02
f6
0b
ed
09
fc
d6
fd
fa
08
13
01
04
fc
06
fb
02
17
f7
05
01
0c
ed
02
05
23
1e
0c
e6
fd
01
11
04
fa
05
ee
f6
fc
e3
f9
fa
0a
0e
fb
11
01
0c
f8
fa
23
e8
08
ee
01
fb
01
06
27
32
11
e6
02
02
0c
05
f7
0b
f4
f8
fd
e1
02
fe
0c
1a
ec
18
fa
12
f1
fa
21
e8
07
ff
05
f7
fb
09
25
31
10
f0
0b
fe
0b
0e
05
0a
e3
f3
00
ee
fb
06
09
21
ef
21
f6
12
eb
04
27
e9
0e
fa
0a
f2
fe
08
24
30
08
f9
06
0d
10
12
07
0f
de
ed
fc
f0
00
ff
06
22
f4
1d
f0
0d
ff
02
2b
db
0e
02
0e
f7
03
0b
1b
22
0d
04
10
1b
09
0b
07
07
e4
f6
fa
f8
ff
01
02
14
eb
0e
05
11
12
00
29
d4
17
fe
05
f7
02
08
19
12
03
fc
0f
2b
fd
01
fd
0f
db
f2
ff
0b
04
f8
02
0e
ed
04
03
03
1a
fe
33
ce
10
fe
02
00
04
0a
15
08
12
f9
1b
21
ff
f2
00
13
e7
f5
03
11
fe
04
f4
07
02
f6
00
15
23
fe
2c
d6
16
01
00
05
03
0d
09
eb
10
ee
23
24
fe
f6
fb
0d
e5
f5
02
15
f9
ff
fa
04
0e
f1
02
0d
23
02
24
e2
0e
fb
f7
01
fd
0e
04
de
0a
f0
19
1d
fd
f0
0c
fd
f9
00
05
0f
06
0a
04
03
0b
ef
19
0d
24
02
1a
e0
07
f4
f9
0e
f9
f9
09
e2
11
ed
19
03
fd
d9
ff
05
0c
0a
05
0b
04
07
f2
f7
1a
e9
20
1c
1f
04
17
02
04
f6
00
0a
fd
f7
00
d5
0b
f5
35
f3
01
e5
fa
10
01
25
ff
fe
fc
ff
ef
e1
19
df
fe
27
16
01
07
24
03
0e
ef
05
fa
ff
de
cc
01
fa
49
e4
fc
ee
fa
0f
f3
12
fd
f8
fb
f2
fe
de
0e
db
fe
27
ef
ff
1f
3e
1a
30
e7
03
02
14
d3
cf
0e
f7
55
dd
16
1b
0e
11
01
f5
fc
f7
fb
fd
1b
03
17
dd
e8
34
d9
fe
1f
2c
2a
34
c8
ee
04
3b
e2
e6
00
02
28
eb
0c
01
04
1d
13
f3
05
10
ff
ed
03
eb
0a
fe
f9
1a
e3
02
14
2a
17
23
ea
e4
fe
1f
e4
f6
19
0c
1a
f0
fe
fc
f6
ef
f8
fd
02
fd
05
06
fa
fe
f3
f8
ee
f8
e8
ff
13
1d
fe
1c
fd
05
fb
ff
f8
f8
0d
0a
02
00
f9
06
07
ff
08
0a
01
f5
04
00
09
05
01
fc
ff
03
01
fb
f9
fd
01
fc
07
fd
04
f4
03
fa
00
f8
dd
da
12
22
27
df
f0
08
00
1e
04
da
15
e3
20
25
22
ee
f8
05
10
04
ff
1f
1c
1f
fd
09
e8
14
1f
f3
e9
e8
ef
06
20
f2
22
16
fd
f7
00
f3
0d
04
10
18
35
ee
11
ff
fd
f6
12
f0
18
ff
02
ec
1b
11
07
f4
d8
f6
0c
2d
44
f2
2d
11
fc
03
03
e7
1a
ff
2c
2c
33
e6
29
03
05
d3
05
dd
24
11
fa
ee
04
17
01
f3
cb
db
29
1e
30
ed
00
08
fb
21
04
0a
11
0a
2b
31
13
e8
06
03
03
e5
df
f3
18
21
02
03
d6
03
0e
0e
dc
c2
2c
0f
16
f4
08
22
fd
1f
fb
f1
05
f7
24
1b
1b
0b
02
f8
0d
e7
ee
f1
08
18
ff
00
dc
f0
0b
03
d9
c1
1e
0f
17
f9
05
0e
fb
07
04
e5
15
ff
21
0d
23
f0
0f
fb
05
e8
07
ef
0c
ea
fe
05
fc
fa
09
f6
eb
c9
08
0b
0d
fa
ff
1f
04
00
01
ea
0e
ff
1b
0a
15
fb
07
01
08
07
04
01
0f
eb
fe
04
fa
f4
01
e4
f4
c9
17
fe
06
19
f8
17
03
f0
03
ee
02
08
0c
ff
0d
fe
fb
00
07
0d
14
05
14
ef
fb
13
0a
fb
f6
f0
f4
d3
0d
03
06
11
02
0f
fa
ef
fa
f0
0c
06
0c
02
10
fc
0c
fc
07
03
0d
01
1d
f5
fc
03
1d
0b
f6
ed
fa
d6
ff
05
fd
0d
01
07
01
e8
01
f3
01
09
17
0d
18
04
fe
fc
13
ff
10
05
18
ee
fa
09
23
0a
fd
e6
fd
e4
ff
f5
06
0f
ff
fe
f9
ee
00
f1
0a
08
10
0b
17
07
fc
05
0d
fa
09
00
19
f1
00
0b
2c
1a
02
f1
04
01
03
02
0c
13
f1
ec
02
e5
fc
f4
0f
0f
0d
07
13
06
fa
fc
12
e5
0c
f7
0e
f5
fc
09
28
27
03
e8
05
07
00
06
0d
0d
f9
e7
02
e2
03
f7
10
18
06
0b
10
0c
f6
fe
1d
de
02
ef
12
f5
01
10
28
30
08
ec
0c
15
f5
03
07
17
fa
e0
fc
eb
fb
f9
15
08
ee
1c
ff
09
e6
fe
35
e8
fc
f6
09
fe
03
15
16
40
19
fb
11
13
00
0e
fd
1e
f5
e5
fc
ea
f9
f8
16
1d
e4
12
fc
0f
e9
fb
2f
d9
13
ec
0a
f9
00
16
15
3b
01
fc
12
22
ef
14
f4
1f
01
ef
fb
f3
fd
f0
05
16
e3
16
fe
0f
fe
fb
2a
d1
16
f3
17
f3
fe
0d
1b
25
0a
fa
0b
28
ee
10
fb
10
0d
04
fa
0a
00
e9
03
0a
f0
17
04
11
1f
fd
1f
d8
20
fa
19
f8
04
00
16
1a
0a
fe
0b
20
f0
0d
f3
0e
0c
08
fe
0c
03
f6
f3
0a
fc
01
18
0a
26
fc
27
cf
1c
f2
18
f7
fc
02
0e
0b
0a
f9
15
26
f3
06
fc
11
05
f9
fa
21
fc
f9
f8
00
06
ff
13
0c
2a
fa
21
d2
1d
f4
1c
fb
03
07
07
f4
08
ee
13
22
f8
07
0b
17
08
f1
fa
13
02
f3
00
f9
06
f9
11
0a
26
01
23
db
0d
fe
14
01
fa
05
05
ed
09
f4
27
20
fc
f1
10
12
16
fa
fe
08
fc
04
f6
09
08
eb
0c
0b
21
00
12
ea
04
f8
0f
f9
fb
07
03
d8
0b
f3
23
0c
04
dd
0c
12
14
03
06
06
01
08
ec
ff
1f
ed
1a
14
13
fb
ff
fe
08
f8
1b
f4
01
08
f8
cd
0b
f9
29
06
fb
da
fd
19
1d
11
fc
e8
02
03
e9
f5
13
d0
18
2a
0e
03
f7
0d
21
ec
05
ff
04
15
eb
c5
0b
eb
3d
d2
fc
e0
f8
13
11
08
ff
d8
fe
04
fc
f6
ff
ab
07
3c
ff
fb
fc
25
26
0b
e2
0b
03
1e
e8
c0
09
f4
43
c9
10
f2
11
22
10
f2
fd
df
05
f5
21
ef
0d
c7
fb
41
d6
00
26
30
30
26
cc
f9
05
2b
ef
db
17
05
30
da
0d
0a
18
25
05
0d
00
0b
fb
fa
f9
f2
0d
fc
e6
1c
fa
03
1a
23
04
0e
fc
e9
04
14
d4
ed
0d
16
18
ed
fb
f8
f2
fe
00
03
fb
fc
02
fc
08
01
fc
f3
fb
03
e9
fe
19
0f
0f
1b
00
05
03
05
ff
fd
09
03
ed
0f
ef
f5
ee
ed
f4
0f
fc
13
05
0f
04
13
01
fc
19
0f
ed
fe
00
0b
16
00
00
0e
fc
f2
fc
f0
0c
ee
ed
ed
df
0d
1a
e6
10
0f
00
ff
03
f7
1e
fe
1a
19
20
e8
0f
00
00
f9
11
23
1a
08
06
e6
02
1e
08
f2
e8
d6
f9
09
2a
00
27
24
fd
07
02
00
ff
01
08
0f
24
07
1b
ff
f8
e7
02
f2
05
0c
fb
ec
0a
02
0b
04
dd
dc
16
24
27
e6
1d
19
fe
15
02
f9
0d
fd
1a
15
1c
00
24
fe
00
ce
04
f6
06
19
05
fa
f3
fc
01
fa
d4
c8
2b
28
31
e2
fc
08
04
1e
00
04
12
1a
2e
2f
17
ed
0e
fe
ff
d9
da
fd
1c
25
fc
fb
e5
02
14
02
e6
c2
27
0f
10
fd
0e
1c
05
0d
fb
f1
07
06
22
0b
10
06
0f
fc
07
d7
00
eb
06
08
fd
f8
f5
e6
06
f7
ec
ce
20
0c
10
09
01
1b
fb
f8
02
f8
0b
08
2c
01
11
fb
0d
fc
05
e1
0c
ec
0b
ec
02
09
08
f4
f4
ef
ed
d3
16
0f
18
0e
fb
14
03
fc
f9
f5
0f
0c
31
03
12
fc
12
fe
fd
f9
11
f8
0e
f1
02
0c
05
f7
e8
dc
fb
e4
0b
06
11
23
03
16
05
e6
fa
f6
11
07
1a
f7
12
05
0b
ff
11
f9
16
f9
1a
ef
fc
09
20
fd
eb
d8
f9
dd
0a
05
08
10
00
20
fe
f0
ff
f6
01
10
17
fd
10
0c
11
06
0f
fa
1b
f7
15
f3
fa
07
15
fd
f2
e7
fb
ee
f6
03
17
0a
f4
0a
04
f8
fc
fa
0b
12
1b
fe
16
0c
04
02
1b
f8
0d
07
1d
f1
01
15
19
0d
f5
e1
08
f2
f1
f7
1d
08
02
ff
04
f1
f9
f9
0e
0b
19
fe
1e
0f
fb
ff
17
fd
1a
02
23
ed
03
15
16
08
f0
ed
0d
01
f7
07
12
fb
fa
fb
fe
ec
00
f8
11
09
1c
fb
26
0f
fb
fc
17
ec
13
f9
1b
f8
fd
22
0a
12
f4
e5
15
0b
fc
0f
0d
06
fd
e3
fb
ec
fb
08
19
0f
0e
ff
22
0b
ef
00
14
ea
0e
f7
18
f3
fe
1f
00
17
f3
f5
09
21
f4
1b
fe
ff
0b
d6
fa
ec
03
03
2b
0f
f7
10
1f
04
db
fc
1f
d9
09
e9
24
fd
00
0f
02
27
0a
02
04
22
fb
18
ee
09
0f
dc
04
f8
04
f9
14
0b
e6
1a
16
fb
ec
00
12
d8
03
df
1e
06
f9
0b
02
31
0d
01
f5
2a
f5
0f
e7
0c
17
fa
04
fe
01
f6
f9
0f
ef
17
15
09
00
fb
17
cf
0c
d9
1c
04
fb
05
02
22
11
f3
f1
33
f2
09
e6
0a
15
01
02
16
02
ff
f1
0a
fd
14
1d
07
21
00
08
e4
0f
e7
1c
02
fc
fa
fa
10
06
f2
f0
2f
ff
13
f6
0d
26
fc
ff
1e
fd
f4
eb
fc
0c
07
22
13
31
01
0a
df
1c
e4
12
f6
00
05
01
0d
08
eb
f5
25
05
0b
05
0e
18
f0
00
20
00
fd
e4
07
0e
02
1f
0e
22
ff
06
e7
15
ee
18
f5
02
11
03
06
09
ef
f6
21
00
02
10
10
1a
f0
fb
14
fb
ed
f0
03
06
ee
23
16
18
04
03
fc
20
f5
09
fe
05
0f
fd
f6
14
f5
09
20
00
ec
19
16
18
f6
01
fb
fe
02
ed
02
03
eb
13
19
10
ff
01
f8
1a
ea
05
fd
fa
18
01
f1
0a
f2
fc
15
04
e7
1b
10
10
f1
05
f1
01
f0
ef
01
1e
e6
26
13
0b
fe
f7
f7
1a
e6
14
00
fe
20
ea
eb
03
de
17
fd
ed
ca
ff
10
2e
fa
fd
e5
fc
f2
f0
00
20
cb
2b
28
08
03
ee
0b
30
e8
0a
e7
fd
19
01
c2
10
d6
4a
ea
f0
cb
e9
2d
2c
07
04
c9
05
ec
f1
f1
04
98
14
4c
f7
00
f3
19
4d
ff
ce
df
01
2e
ff
ac
09
d9
56
d5
09
f2
06
53
29
fe
fc
f2
03
e9
f9
e7
11
d1
03
4f
e1
01
0a
27
39
19
c9
c5
03
34
ed
d2
16
f7
3b
f4
0f
10
06
36
f1
fc
01
09
00
06
e8
ff
22
f3
01
3c
f0
fd
13
0c
11
06
e5
db
fa
24
cc
f1
03
f1
19
0e
0c
09
e9
0f
f9
ef
05
04
01
01
0d
0a
14
01
14
16
e7
fe
03
fe
1f
13
fb
e8
01
19
f2
f4
f8
ee
fa
f0
ee
02
09
fa
0c
08
00
04
05
fe
05
fe
07
04
06
f3
0d
fa
fa
fd
05
12
05
fa
03
ef
09
05
03
fd
e9
e7
d9
17
1c
ee
17
1d
fd
fb
01
f3
1f
f6
16
15
12
ed
14
00
00
f2
14
1b
09
04
fe
da
0a
10
08
ea
e7
e4
01
07
19
f3
07
0a
01
13
fc
f9
08
f2
0d
19
20
0f
0e
06
11
ea
08
03
0c
07
fe
f1
fe
12
10
f7
dc
ea
1e
24
16
e5
05
03
03
05
ff
f1
13
11
17
0f
24
f7
09
01
01
c1
0e
00
01
22
03
09
f9
0f
00
00
cb
c8
1c
26
2b
dc
f5
06
04
0e
05
ee
23
1d
27
19
21
e5
12
ff
08
c9
f6
15
18
23
04
02
ed
02
09
ed
d3
cb
2f
07
1b
02
08
08
00
02
04
02
04
20
29
ff
0f
ec
16
02
04
cf
01
f1
1c
fb
fa
f7
0e
ea
01
f2
e4
ed
14
0f
11
11
03
06
ff
ee
04
06
06
0c
20
f6
01
f6
11
fe
05
e6
19
f5
07
ef
00
1b
06
fa
ee
e4
ee
f1
0c
10
10
15
fb
0c
04
f0
fd
ff
0d
07
24
f2
08
fe
08
02
08
fc
11
08
06
f2
00
17
04
00
e6
de
f7
eb
fb
06
12
1a
f5
11
fc
ef
fb
f0
10
0f
1a
de
04
07
05
ff
0e
05
18
0a
0d
ee
fe
1a
0f
fc
e2
e0
fe
f2
f7
fb
17
10
f8
16
fc
ed
01
06
07
0e
19
e0
0a
09
06
00
13
f9
12
04
1e
e9
fe
1a
15
fd
e7
f0
0d
fe
ef
f7
14
08
fb
0c
fa
f0
fb
03
06
12
0f
d2
15
0b
f5
fb
14
f6
16
04
14
ec
ff
15
17
fd
f2
f4
17
f5
e2
f1
11
05
14
03
ff
eb
00
fb
14
08
13
c3
19
08
f2
fd
07
03
1a
0a
15
df
04
18
10
f4
df
ea
19
ff
f4
03
0c
f5
21
f7
fb
ec
00
07
1e
0b
16
ce
24
0a
f2
fc
06
f2
18
fc
17
e3
fb
18
06
ef
e7
ff
0f
17
f9
10
03
ee
20
d3
03
de
fc
12
2f
05
01
e2
32
01
e4
fc
fc
e9
0c
f5
19
f1
01
18
fd
f9
eb
06
f9
25
f7
26
ff
ec
10
c2
02
df
fb
fb
30
0a
e6
06
2d
e8
d2
fc
e8
e9
fe
fa
1c
01
fb
12
f6
15
f6
ff
e9
35
00
26
ec
fa
1a
cb
fc
fe
fa
f8
10
fb
e3
26
1b
dd
e1
02
de
e4
ee
f9
1e
03
f9
01
f9
24
ff
08
da
33
0a
20
e9
fc
25
f9
fb
1a
03
fe
e4
fc
f1
22
20
f2
0b
fe
dd
e6
fc
de
1d
03
fb
f0
f7
1a
0e
fa
d1
33
08
19
e8
05
2c
f8
f9
1c
ff
fa
e7
fb
08
14
25
f8
26
ff
d9
ed
07
d9
16
fe
fe
f0
07
1d
06
eb
c9
24
0d
0c
f8
05
30
f4
fa
1d
fd
fa
ec
03
08
f9
2e
08
33
fb
dd
f4
0d
d9
05
f5
fc
fc
0f
14
08
f2
c8
1c
14
0c
0f
02
28
fb
03
11
fb
ff
e4
0e
0d
f3
27
15
25
fd
da
f8
13
df
01
f8
fd
0c
02
15
04
f4
ca
18
10
07
19
05
1e
f9
fb
0c
fd
f7
e9
09
02
eb
1e
16
21
01
e4
03
13
e7
f4
03
00
14
f7
0d
0b
ef
e2
07
02
fc
20
0d
0d
f8
fc
fc
05
f2
e2
04
0c
e9
1c
15
14
02
ea
12
18
f2
f7
f7
fc
1e
e8
fa
06
e4
e9
12
06
ea
22
16
07
eb
04
f5
04
f0
f2
05
1c
e9
1e
0e
11
fe
ed
01
23
ec
0a
f7
fb
27
ed
f7
06
e4
fe
ff
ee
c6
05
19
17
fa
fc
d6
01
fa
f1
07
0f
ce
29
2a
06
fd
eb
05
33
ed
06
f9
02
1c
fc
d1
0c
d5
2a
05
c8
c8
d9
20
32
03
fa
cd
03
e6
03
f0
f3
9b
31
4b
e8
01
f2
26
5c
06
cc
ec
fb
36
12
b7
1c
cc
3c
f6
f2
ed
e6
3d
20
e2
ff
0e
02
d9
f3
e1
0c
de
2a
45
cd
01
09
3b
4d
3b
ce
b9
02
45
ec
cf
16
cc
0b
fa
12
08
fe
30
0a
dc
ff
11
fb
db
e7
f6
33
fb
01
1f
e1
ff
09
18
31
1d
d1
be
fc
34
eb
e6
08
e0
f2
f2
fc
ff
04
f6
14
f2
fd
04
03
ec
08
e8
0e
f1
1b
f3
f1
03
09
fa
17
15
0d
ef
ff
f4
15
08
0a
e9
f4
f1
ed
05
08
fc
08
0d
05
fe
fd
00
09
03
07
05
0b
f4
0c
fb
01
02
08
11
00
f6
02
f2
0a
fc
01
fc
f9
f3
d8
0b
08
f2
0c
24
03
09
00
fc
12
f5
06
11
0a
f8
12
fd
f4
04
0c
18
0b
04
05
e2
03
03
fd
f9
d8
f0
eb
1b
1a
e4
19
05
fd
04
02
f2
17
fa
13
1c
25
f6
12
01
14
db
16
ff
21
ff
fd
dc
0e
19
11
e7
ce
ed
1e
1e
2b
e7
f3
ef
01
06
04
f7
21
f9
fd
14
1d
f9
06
03
15
c0
0c
0b
0a
16
01
1b
ed
2b
04
fc
cb
dc
0a
19
0b
ff
04
11
00
ff
fa
fc
09
13
0c
fc
11
f2
08
02
05
d8
1c
0a
0c
05
05
19
f7
ed
eb
e8
ca
e3
06
fc
1d
08
05
fd
05
ff
01
12
ff
1e
09
dc
09
f0
11
00
03
d4
0b
f7
13
ea
fd
02
1d
f9
f3
e8
d3
ea
03
ff
20
11
04
f7
fd
f3
01
0b
fc
1f
0b
d5
f4
f6
01
fa
08
ed
15
ff
13
ed
00
18
20
fd
ea
ea
eb
e8
f4
fc
16
18
fd
0e
fe
ee
04
04
05
0b
18
c0
f9
07
01
fb
09
03
19
07
0b
f1
fe
11
14
f9
e3
e4
00
f7
e9
ef
0b
18
fe
16
ff
ee
01
fb
06
0e
10
b6
f7
09
fc
fe
13
08
16
06
14
e9
fc
0e
1b
ef
e7
e5
0f
ee
eb
f1
07
11
0c
22
f9
e9
03
01
04
13
0e
b3
05
0e
02
ff
09
01
1a
03
17
eb
fe
10
1b
ea
e8
f0
1c
ef
e8
f7
02
06
13
1c
fd
e6
fd
07
0c
16
0e
b0
08
03
f5
fc
fd
00
17
0b
04
e1
01
11
0b
e4
e0
ea
20
f3
f6
f7
fa
fa
27
0f
02
e6
fc
04
1b
07
02
b4
10
01
f8
ff
ff
fd
1a
0a
01
d8
02
15
0a
d9
da
f0
1e
f8
fc
fd
f7
f3
35
f4
01
e2
ff
06
25
f5
fc
c0
17
12
e6
fc
f0
fc
1a
05
f4
df
fa
13
f8
d2
e0
02
0a
0b
f2
14
f4
d2
27
d6
fc
d5
04
f8
39
f7
ef
e7
2d
f6
d8
fb
e4
fc
13
0f
de
01
fb
0d
ed
e2
f0
fa
fe
2b
f7
1e
e1
c7
13
ba
fd
ea
ff
f1
22
fa
e9
07
28
e1
bf
fe
c8
f4
0f
16
ea
08
fd
15
fc
fe
ec
e3
f6
2e
f1
1f
ed
e7
26
e8
fc
0a
f9
de
00
ed
f7
25
15
de
e6
02
b6
ff
fc
0e
0c
f8
03
f9
f6
fe
e9
f3
db
2c
ff
1b
ef
f1
28
ff
fe
14
00
e3
e4
ec
fc
1b
18
de
17
ff
c3
fb
f9
ef
14
01
fb
f3
06
14
fc
fa
ce
24
11
0e
f5
f4
28
fb
02
16
f9
f3
f3
f8
0e
02
14
f6
36
f9
c9
f8
ef
df
0d
0a
fe
f4
0a
15
07
fd
c5
1d
18
0e
0c
fd
2a
f4
fb
10
01
01
f3
03
0d
f5
1c
03
2d
f9
d3
f0
05
dc
f6
02
fe
00
12
1b
fa
f0
bf
18
21
0e
17
00
20
02
00
0b
fc
fe
ec
11
10
f3
16
0a
27
03
c9
fb
0e
ec
f6
f5
ff
05
06
22
f6
f1
bc
11
14
0c
21
fe
14
ff
fb
f8
01
f3
f0
0f
03
ed
1b
07
1f
f9
d1
fe
19
ed
f0
fc
fd
0c
f8
1e
02
f2
d2
12
05
03
26
00
0b
02
02
eb
fb
f7
f7
0d
0e
dc
1f
07
1d
04
d3
00
20
e8
f0
f9
fb
10
f9
07
fe
e9
e0
0d
fe
ec
20
0d
06
fc
01
e2
03
f4
05
13
0e
e5
1b
10
20
ff
cf
fa
21
df
fb
06
02
14
fc
05
01
dc
fa
17
ed
cb
fa
0c
fe
fd
fd
d0
fc
08
f5
16
f8
d5
1c
21
f7
fe
c9
02
34
fa
f5
16
04
22
fe
e8
09
c9
0b
02
c6
b5
d9
10
2a
0b
fc
de
fd
e7
f8
e3
e9
be
2f
47
d1
fe
e2
2a
51
1b
df
09
ff
27
0c
ac
23
c2
0f
0b
e0
cd
f1
3b
3d
cd
ff
1f
fd
ba
fe
c6
06
08
1c
31
bf
02
03
3a
46
41
eb
b7
02
39
0f
d1
1c
e2
fe
0c
fa
e4
e8
20
2b
ca
01
15
fd
cc
07
de
22
13
21
11
bc
02
12
22
3a
30
0a
cb
fd
2e
07
e0
0f
d8
f1
04
fa
17
f5
03
12
f3
02
0f
fc
ed
fa
f6
1d
0c
fd
f5
f8
ff
11
f1
0c
f8
13
ea
ff
fe
0b
fb
fe
e8
f6
f1
e9
0c
07
f7
09
15
04
f9
02
fb
10
fd
08
00
13
f6
09
fa
f7
01
0a
0b
0f
fa
02
f1
0f
fd
ff
fb
e8
f7
e9
0b
07
e1
0d
29
fc
fe
01
fa
13
09
f4
14
0e
fa
0e
04
f3
fc
14
16
0e
fc
01
e9
0b
0b
05
ed
e5
e6
e2
25
25
e0
15
15
00
fd
fe
f5
28
f5
ff
1a
17
e0
1e
00
fc
e0
1f
2c
16
f6
02
de
09
16
fa
e1
d3
eb
17
25
21
ef
f8
05
fc
0f
fc
fc
1c
f1
eb
09
15
ec
14
fe
0a
d6
16
19
fc
11
04
1a
e7
18
f0
f8
d5
f5
fe
10
0b
0c
f4
fb
fe
f7
fc
fc
0b
fb
ec
da
ff
e6
03
04
02
d8
19
1c
fd
f2
fc
1f
f6
f9
e7
d8
e1
eb
eb
fe
13
1b
f2
f7
fa
f5
03
17
fc
0e
ed
ba
e9
f7
00
fe
f9
e7
14
0a
0c
e7
ff
18
0a
f7
d7
e1
e3
f2
e5
f4
0c
16
00
fa
01
ee
fc
13
fb
0b
ea
af
f9
09
04
04
ff
f3
1d
f7
10
f3
00
0b
1d
ef
ea
e6
f4
ec
e0
fc
03
19
07
14
fe
e4
00
0d
07
17
09
a3
f4
09
0b
ff
f4
01
1c
01
0d
f5
ff
05
1c
f1
d3
e6
10
fd
ec
fa
03
21
0e
18
f9
e2
04
04
fc
0f
f9
ac
ee
0c
0d
00
f7
02
1d
f9
fd
f3
ff
05
1e
f0
e9
eb
16
e8
f4
fc
07
22
19
29
03
eb
fd
0a
fe
07
f2
b6
f2
0b
0f
01
fb
01
0d
02
01
ed
01
ff
09
de
e1
f8
1c
e8
fb
04
fe
17
23
2c
02
ec
ff
01
18
fb
e9
c5
06
00
16
fc
f7
02
13
00
f1
ee
06
01
ff
e5
d9
f5
19
e6
0e
11
f2
11
31
25
ff
ea
fe
fa
2c
ef
e9
d8
0e
02
07
ff
f3
f4
14
fb
e4
f5
fd
0e
f9
e4
e5
f9
1e
da
18
0e
eb
fd
34
12
fb
e8
ff
ea
24
e3
e2
e3
12
05
fe
fa
e8
08
14
02
ab
0a
fe
11
e5
d5
e4
08
18
0c
fd
21
d8
d6
11
de
ff
e3
04
dd
25
e5
e1
ed
05
02
ce
00
e0
0c
24
23
8a
1d
01
25
f0
df
ec
e5
0c
2b
05
2a
da
cf
01
cf
fa
fc
04
cc
06
ed
00
15
e7
e7
c5
f9
c7
03
1b
27
b7
11
fd
30
f6
f2
d2
eb
0c
2e
06
1f
f4
01
1a
f3
00
09
f9
c9
f3
dd
08
26
d6
e3
f0
02
cb
fd
07
14
f0
f4
fd
0c
05
fc
d5
f8
04
16
03
19
00
0f
17
0d
fa
04
fa
d2
ef
dd
04
11
e4
ec
26
fa
d5
03
fa
fe
00
03
04
fa
0b
10
e7
0b
e7
1e
0d
11
0d
09
1c
f7
02
03
01
e7
02
e1
f5
f2
fb
f4
2b
03
e5
ed
02
ee
fd
0d
fd
09
10
21
ee
09
d6
1b
17
10
19
fd
19
f9
fa
07
fb
f6
01
f0
f4
e8
07
f7
20
ff
df
f4
0a
f1
f8
fd
fa
0b
0e
28
ee
f8
cb
1c
1b
0c
23
f0
09
f9
fd
ff
fc
06
fb
09
ff
f5
06
03
13
f9
da
fb
03
f6
eb
f7
05
05
07
25
f7
04
d6
2e
0d
18
23
f8
fa
fe
fe
e4
fb
02
01
16
fa
e3
04
fc
17
ff
d2
f0
0a
eb
e5
fc
fc
07
09
31
e7
fd
e4
24
e9
09
20
f9
f2
02
fe
d0
fc
18
02
26
04
d3
05
fb
16
fb
ce
f1
0c
e4
ed
09
00
f8
0f
1f
f9
ea
e5
1c
e1
ff
14
02
f6
0c
01
c4
fd
10
0a
34
0d
db
02
04
24
fe
b3
f3
10
d8
ee
10
00
fc
0b
1c
f1
e2
05
16
d9
e2
01
f9
f2
0f
fb
c7
fc
26
0f
37
04
e1
fc
18
ec
04
bd
0c
25
f3
ed
23
00
16
ff
f3
ea
ca
00
0a
e4
cb
dc
ff
ff
07
05
dc
fa
06
ff
17
0a
f0
0c
3a
cb
ff
d0
16
49
07
d9
1e
ff
31
ff
ba
f7
ba
f8
24
f9
c7
e4
1f
2a
c7
fc
13
03
c6
f0
e1
1a
13
17
2e
ad
01
f5
21
48
31
02
d6
fb
3e
fa
d9
01
c6
09
23
ff
ef
cd
2d
1b
cd
ff
0a
02
ca
04
e5
24
fa
26
24
c7
02
16
06
4b
1f
ff
cd
fd
37
fe
e4
fa
c8
f2
1a
f8
09
f7
03
13
fa
04
fc
ff
ee
06
f0
11
12
ef
fd
fa
00
01
fd
09
03
0c
e9
01
09
f9
fa
fb
eb
fa
fc
f4
04
07
ff
0d
0d
00
ed
03
f7
03
03
02
03
0a
00
04
05
ee
02
04
fd
03
05
01
f1
09
fd
fc
01
f2
d6
e7
12
15
e7
1f
23
05
fc
05
ea
16
f4
0a
05
17
e7
16
fe
e9
f3
16
15
0d
f3
05
e2
0e
03
f9
ef
e6
e2
e4
22
20
e8
24
1f
fc
00
02
f9
1e
05
02
0e
0c
ea
2b
05
f9
e8
1a
22
1e
f5
03
cc
12
0c
fc
ec
de
03
02
25
05
f4
06
10
00
01
fb
f4
19
f5
e7
00
fc
e5
17
02
fe
e1
27
1f
f6
fa
05
15
06
0a
f2
e0
e8
13
e3
18
09
1d
f1
eb
fe
f3
fe
06
12
f9
dd
c1
f2
ea
08
01
f0
dc
1a
00
f4
f5
ff
1f
12
0d
de
e0
e4
f9
d1
00
fd
21
ee
fd
ff
f1
fb
12
06
04
cd
a8
e9
f9
0f
fb
e2
e7
23
03
fb
f8
fa
11
12
f9
cf
e4
f3
f9
cd
ef
ef
1d
fd
11
fb
e8
fc
12
0e
fc
b2
9f
ee
12
11
f9
f4
03
22
f3
ed
0f
04
ff
19
ec
e0
e6
f7
f1
e3
fe
f8
25
10
15
f9
f8
fe
02
18
fb
cc
b0
f3
0d
1a
fe
f5
09
1a
f9
ed
02
fe
f8
12
e5
dd
ef
05
f3
f1
fc
00
23
22
19
fc
ec
02
02
0c
fc
c7
d2
fa
00
21
fb
f4
05
03
01
ef
fd
04
ee
0f
e8
f0
fc
0c
f0
0b
05
f2
26
13
26
fb
f8
00
0a
0b
fe
c4
e0
fc
ff
14
fb
f9
fc
ff
fe
dc
03
ff
fa
fe
ee
ea
03
09
e4
14
fd
f4
2a
29
2b
fc
00
05
fa
26
ec
c4
ee
03
02
15
05
fe
03
06
05
b8
07
fc
fc
f3
f3
f2
14
12
d8
1e
03
e5
17
33
2f
fe
ff
fc
f0
1b
df
c6
f2
fd
10
16
03
fd
0a
06
fa
a4
17
fa
f6
e4
e9
00
20
12
d1
25
05
dd
fe
1d
15
03
12
fc
e9
10
d7
e6
f7
f2
15
fe
fb
f5
20
ff
04
81
22
fe
03
d4
d4
08
1e
0b
07
16
19
d0
ee
05
dc
ff
09
fc
e5
f6
e9
f9
f9
da
11
c6
03
f0
21
06
15
96
25
03
1e
e5
ea
f9
15
11
26
15
30
e2
fa
f4
d1
00
fb
03
d4
f7
e4
0c
18
c9
f1
bf
fc
ea
09
fc
21
ce
17
fb
2c
f8
0d
e6
0a
1e
1f
11
35
fa
19
05
f3
ff
fb
ff
d4
ee
e1
06
13
bb
ec
f3
00
e4
03
fe
15
f7
03
01
19
fe
10
d1
08
18
05
0b
2c
12
18
04
04
fd
fd
f9
e7
02
e5
f9
03
cb
f3
24
03
e9
f8
f7
fc
00
0c
fe
07
f9
0f
d2
09
07
0e
0e
1e
15
0a
01
fc
ff
f4
ff
f4
0b
e9
f3
e7
e4
fb
26
03
f5
f2
ff
f2
f9
10
00
05
09
1f
db
01
f0
15
13
13
18
fd
05
f6
fa
f1
fa
fe
09
f4
f8
ea
ed
f7
17
fa
f6
f3
0e
f6
f9
fd
fc
0c
0b
18
ef
09
e3
1e
1a
0d
1a
03
01
fc
03
f2
ff
0f
f2
0a
fe
ef
e6
0c
0b
01
f6
ee
0a
e9
e7
e9
04
10
1a
14
f5
14
ef
17
00
0e
1b
08
f2
04
fd
ed
fc
14
fc
13
06
e8
e6
10
10
fa
f3
ef
08
ea
e5
ef
ff
02
10
12
ec
05
03
1c
f0
ff
11
07
e5
15
ff
dc
fd
25
fe
2a
10
e2
e3
0a
2a
fa
e0
f9
f5
de
e4
fb
fc
f0
12
00
e8
fb
05
13
da
fb
04
03
e2
1d
ff
c2
fd
2f
11
46
05
d7
ec
0a
35
04
b5
ef
f3
da
de
12
02
de
12
0f
e3
ec
07
08
e7
00
01
fe
d0
2c
01
b7
fc
46
26
59
04
eb
ea
10
16
05
aa
f5
fb
da
d5
26
fe
fa
fd
f5
e1
dd
f4
ec
f5
e9
fb
d9
e3
32
fe
dd
fa
51
02
66
19
08
0d
1a
05
fc
b5
06
f7
db
f6
35
04
f5
e7
d0
e9
e5
dd
05
04
e7
0a
00
16
e4
04
06
04
f0
ef
1d
2c
2c
13
fc
cd
ff
d3
ff
0b
03
13
f2
01
11
f9
d8
f0
dd
d9
1f
05
eb
f8
17
24
e1
04
14
03
d3
05
f7
2b
1a
0a
01
cf
fb
04
f1
2e
08
fc
c8
03
1e
08
e0
f0
e0
eb
1e
fa
11
18
e9
12
e4
03
f1
02
ee
0c
18
27
0b
f7
e3
05
fd
f9
e8
ef
07
02
ec
05
f2
00
f2
f7
ef
05
02
f6
03
ed
f9
ff
04
fd
06
fd
08
03
fc
03
07
03
fb
ff
03
00
03
fe
08
f9
fa
fc
fd
f2
f4
03
ec
fa
ef
e9
0d
06
f1
0a
0e
03
f7
01
ff
05
f7
04
05
08
f9
09
00
f5
f9
0c
08
06
fe
fc
eb
02
01
02
f5
ea
e0
e2
18
26
e1
27
17
03
f5
01
f1
21
00
fc
0a
1b
e5
23
fe
e4
f2
21
1c
17
f2
01
cf
14
fd
f4
ea
e8
20
fc
17
fb
fc
0c
fc
fc
f8
ff
f4
12
f9
e3
fb
fa
ed
0b
fe
fc
ed
24
11
e5
fe
02
14
0e
13
fc
df
f4
34
cb
0d
f7
2b
fe
f6
05
ea
05
fe
17
d3
c5
c2
df
fb
18
00
e4
dd
16
f0
cb
ed
fc
0a
1c
0e
ee
e9
e8
05
c5
f4
03
22
f6
13
01
fe
03
04
17
e4
b1
b6
ea
04
16
fb
e1
07
16
fa
d3
05
ff
fe
0c
f3
e8
eb
f3
fe
cf
f7
02
1d
f9
20
03
05
ff
0d
1e
ed
8c
c6
f3
0a
1f
00
e3
10
08
f5
c6
1d
fe
eb
08
f7
e8
03
f9
fd
e9
f5
fb
2d
13
11
ff
fc
00
0e
09
ec
9a
e1
fe
13
15
03
f5
11
06
f2
b5
05
01
f3
19
f7
fa
02
ff
fc
f8
fe
f4
2b
16
12
fe
09
ff
0f
07
f7
b2
00
04
02
16
01
f9
0c
fb
fc
b9
0e
fe
ee
0b
fc
f4
0b
0a
e7
02
fe
f5
28
13
21
03
06
fb
0e
0c
f6
c6
08
03
07
12
fe
00
07
fd
02
b0
16
01
f4
fb
ef
00
13
09
dd
0b
f9
f5
29
23
22
fb
05
fb
0b
17
fa
cc
02
07
0a
0f
01
fa
0b
04
f6
a1
1c
02
e9
fd
f5
0b
27
0e
ce
1d
fb
f1
27
2c
1f
02
0b
00
fe
f9
f5
ea
fe
ff
1d
09
fe
fc
0a
05
eb
9c
13
fb
f6
e4
e6
0c
2d
07
e4
1d
f7
df
17
12
fb
f9
22
fc
00
ec
f0
04
fb
ec
1f
da
fa
07
22
00
01
be
20
fb
08
db
e6
0d
2b
11
13
23
13
ea
13
f7
d6
00
12
01
fa
e3
01
14
11
d7
08
bc
ff
09
18
f4
16
dd
18
01
29
e8
07
00
22
1b
23
18
27
fa
18
f4
e1
fe
fb
03
f5
f1
f6
18
1a
d0
ec
cb
03
02
0e
f7
21
f7
08
f9
1c
fe
16
f3
14
35
10
14
2f
08
20
fa
02
ff
fb
01
fe
f4
fc
0f
04
bc
f6
01
f9
ec
0b
fa
12
f1
01
04
15
f9
0b
d3
12
26
00
14
2f
17
1c
f8
fd
03
f3
f9
f2
f9
fb
fd
f4
c7
f8
21
fb
e9
02
f8
f5
06
0e
ff
0e
f7
14
d2
0d
ff
07
0f
1c
1d
13
11
f1
fd
fd
fa
f9
00
ee
f5
ed
dc
f5
1b
03
f4
03
f5
ef
0a
07
fd
0a
fc
07
e0
10
e8
00
15
14
17
04
0c
06
01
f7
01
fe
f3
fa
00
ed
e2
ff
0d
04
fb
fe
0b
f5
fa
06
03
02
09
03
ed
10
f9
08
ff
05
1c
08
00
08
fc
ef
fc
0e
f3
02
fc
f0
d2
09
0b
fb
f9
ff
08
f6
e9
f8
fa
07
15
01
ed
12
07
06
f3
fc
17
18
f8
0c
ff
eb
02
08
00
08
14
01
d3
0f
16
00
05
00
14
fd
e2
f0
fa
fb
15
f7
eb
0a
0b
0f
e8
ee
1a
17
f8
13
fb
e7
02
19
17
0c
13
fc
d6
0b
28
fa
fc
0c
fc
f5
f3
fe
03
e6
1c
f8
f1
07
05
02
e2
e3
ff
0e
ea
29
fe
d0
fd
29
22
24
03
ee
e8
21
25
ff
e3
0a
fa
ef
dc
12
03
e6
1b
f5
f2
f2
ec
ee
df
e5
fa
ed
e4
2f
05
d0
fe
43
24
44
08
ff
f6
12
15
03
dd
08
f5
f3
e1
34
fd
da
fc
e5
f4
f4
d7
dc
ed
df
18
c8
f9
1d
ff
f0
ff
37
1c
54
1b
24
16
f5
02
fd
d8
00
e3
e9
f2
36
03
ce
06
d7
fe
fb
c9
f4
07
ec
29
f2
1a
f0
fd
13
02
03
e8
34
38
33
0f
ea
eb
fc
d5
ef
ef
ee
05
ef
fe
ed
11
d6
02
f9
ca
ff
20
e5
1c
fe
19
d1
fc
1f
01
f7
dd
20
42
2b
0e
dd
e4
03
00
de
f6
fc
0a
cd
ff
ff
17
ef
05
04
e7
ea
01
f0
1c
ee
ee
ea
fb
05
fb
18
f1
1b
1b
f5
0e
e3
f6
fb
f8
ef
e6
15
08
f8
04
f4
18
06
07
13
16
f4
ec
f2
f4
f2
15
0f
ff
07
04
f4
f7
f3
fd
fd
06
0d
f0
05
10
0f
10
12
fe
f8
01
0a
02
f3
11
ef
fb
07
03
0f
00
03
02
05
02
02
fc
f9
10
ee
f6
07
fe
03
05
04
fe
f3
07
08
f5
0e
04
0e
f0
10
f1
ff
f9
e7
d6
1e
24
dd
22
16
04
fa
05
ea
2d
ed
f9
0c
1f
dd
21
fe
df
f7
22
21
07
01
fb
da
f6
f2
fa
e3
ff
16
fb
19
06
10
04
f5
fe
04
03
02
11
e6
e4
01
f9
e9
04
ff
e9
1d
05
13
d6
ea
fa
04
06
06
05
f8
f6
23
e8
03
06
29
0c
fe
fa
09
00
f6
0c
cc
d8
f8
e1
04
1b
ff
e9
f8
06
df
c6
db
fd
f2
16
fa
02
0f
f3
05
cb
ed
0a
1b
07
27
01
0e
03
fc
1e
e2
b2
db
f4
08
1e
02
d3
0d
04
dd
b2
13
05
dd
15
f0
fd
06
fa
07
d6
d8
08
15
07
0d
03
0f
fd
13
10
03
ad
fd
f1
04
17
fd
e3
05
03
e7
ac
13
00
e3
18
fc
05
09
f1
fe
dc
de
04
15
1d
13
02
0e
00
15
09
03
b4
0e
0c
0a
1d
ff
f8
05
f9
e4
a8
0d
fd
e4
25
fc
19
1c
f5
fe
e3
ef
fd
20
0b
10
fc
17
fd
0e
0d
f9
c9
19
0c
08
19
fe
02
0c
f0
f3
91
0d
fd
e7
09
f8
09
19
ff
f4
e8
ed
fa
21
11
19
02
1f
fa
0f
0c
f6
e1
28
03
05
00
fc
02
0e
f4
f8
a3
1a
03
e8
04
fa
0b
23
0c
dd
ed
f5
ff
25
21
1c
03
0d
03
16
fd
01
f5
0a
08
0f
06
fc
04
07
0a
f1
be
13
fb
ee
fd
fc
0d
2a
0a
dc
ff
f4
fc
18
1a
14
ff
09
fa
23
e1
0b
10
02
f3
1e
01
01
fc
0b
00
e7
db
12
fb
f9
e9
eb
ff
2b
12
fa
0a
04
f4
13
0b
fd
fa
0d
fb
18
e2
0a
20
08
e6
1f
e6
03
04
19
fc
fc
e8
16
fe
08
e0
f9
fa
2d
1e
0d
12
17
f1
1d
f0
e6
03
0d
01
21
e1
18
30
12
da
05
cc
03
00
12
fb
13
f2
07
01
26
f2
0f
f1
1b
28
19
12
2a
04
1c
ed
e9
ff
10
03
0c
f5
10
1e
24
dc
fb
e1
01
05
1b
f8
2c
fd
ff
fa
25
ec
08
f2
12
21
08
11
2b
10
1f
f2
f8
fa
0b
fd
06
00
06
06
0f
d5
fa
07
00
f9
12
fb
1b
f7
03
fb
0f
f0
0d
e4
0a
1e
f6
18
20
25
2a
06
ef
fe
06
01
04
ff
fe
f9
f9
ca
f4
19
f9
ed
13
ef
01
03
fc
ff
10
e9
08
e0
19
00
f5
1b
1a
23
21
24
06
fb
fb
03
fa
fc
f4
f7
f9
d4
05
20
fe
ee
06
04
e3
fe
02
fd
00
07
04
e4
1c
ea
f2
06
0c
20
06
16
08
04
f8
fc
f5
fd
ff
08
08
db
00
17
ff
f1
fa
16
fa
ff
10
fb
fd
1d
08
ec
12
f4
f6
f1
05
23
00
0a
11
fb
f0
fa
f4
02
ff
0b
06
cd
00
27
04
e9
f7
12
fe
f8
07
fa
ef
17
fc
ea
16
fd
ff
ee
e7
23
07
f6
00
fc
e7
02
f7
13
f3
07
08
cf
03
28
01
00
00
02
fa
f7
09
fe
ee
24
00
f1
0f
f2
10
ea
f0
14
06
ef
0a
00
e8
00
07
26
fd
0c
12
e0
09
1d
f9
06
01
fc
fd
ef
18
02
e8
17
fc
f4
fd
e6
00
e3
de
12
fd
04
17
ff
ee
04
09
33
02
07
09
ed
05
19
fd
f2
0f
fd
02
de
20
fb
d9
15
fe
fc
ff
d9
ef
d7
de
03
ed
0d
1e
01
f0
00
0e
39
0f
00
13
0c
ff
10
fc
00
0f
06
fd
ca
29
00
d8
0b
e6
0d
01
cf
ef
ec
d6
f8
d7
10
12
ff
00
01
0d
2b
2b
06
1d
2d
fe
ea
06
07
02
01
f5
e5
2f
fd
d8
0e
de
13
fa
db
e0
05
f1
1d
e6
0d
f6
fc
04
01
26
df
30
1c
23
20
e9
eb
04
e9
f8
dc
fd
02
06
fe
e1
07
e7
02
13
ca
12
15
d7
25
e5
05
d0
fb
27
fe
1b
d5
3d
2f
2a
22
c5
da
03
0c
d3
d8
fd
20
dd
fe
f8
2d
0f
2c
18
f6
f8
ff
e7
14
eb
00
e7
02
0c
01
1b
ec
1d
1b
08
15
e8
f4
ff
f9
ef
e6
06
11
ef
02
ef
1d
f3
17
0b
14
ef
f2
eb
ee
f3
0c
18
00
06
01
eb
f6
ec
ff
00
06
0d
f5
fd
16
15
12
12
ff
f8
03
0e
06
f0
11
f4
f9
14
12
13
fa
0a
fc
04
06
02
fc
f6
0f
f2
f5
0d
f8
09
f2
fe
0a
f2
0f
0c
ee
08
fa
09
f9
10
ed
fe
00
ed
f8
28
16
eb
09
20
ff
2b
fa
e3
1d
d3
ec
29
23
fc
1f
fd
e0
1a
0a
19
de
0f
03
f5
d1
e8
f2
f7
f4
fe
0b
0e
1c
0f
0c
f9
04
11
01
ff
00
eb
f6
10
f6
f1
03
03
ea
19
f6
05
d6
e7
04
f6
fd
f8
08
1a
e4
23
00
fd
00
01
11
ed
fb
14
fb
fc
fd
e3
ef
14
f7
0b
09
02
df
f3
02
d4
bf
fa
fe
f3
17
ff
16
1c
e9
1f
e8
d2
09
02
0b
01
00
22
02
08
1a
04
dd
16
08
01
03
03
d6
02
fc
da
a7
1d
fe
db
19
07
14
0f
f1
0b
e6
ca
16
0b
0a
02
02
1b
fd
09
1a
0c
e6
2b
fe
f7
02
fb
de
09
fa
fc
9f
11
03
ec
1b
00
12
0c
fa
0a
de
da
07
04
18
10
01
14
fa
13
06
0e
db
23
10
02
23
ff
ee
05
f4
e3
9d
10
fe
dd
1f
f5
10
0f
fe
07
d2
e0
fb
1d
0a
14
01
15
fe
1b
f9
09
f9
22
01
07
1f
04
fa
0a
f2
ee
ba
07
fb
dd
16
fa
01
1a
fb
f1
d7
fa
f3
1a
13
19
04
12
02
1d
f9
05
0d
1e
09
12
0f
00
fe
09
f5
f1
d2
0a
02
e7
03
f1
01
1f
f9
ee
ca
f6
f9
27
18
18
03
fb
fb
19
f6
0a
0f
0a
ff
17
03
00
06
06
03
f1
f1
06
03
e6
00
fc
03
22
07
f4
da
0c
fe
1f
0b
15
fd
f9
fd
26
f3
0b
25
04
f0
21
ec
02
0b
0d
f0
f6
0d
09
fd
fa
e3
fd
f3
2c
0c
fd
f0
0f
00
1f
fa
07
fb
05
00
23
eb
04
26
01
e9
19
dd
04
12
15
fb
0f
fe
04
01
18
e7
f9
f0
24
18
10
0e
24
06
1c
e3
f6
00
17
00
2c
e6
12
39
1b
dd
05
da
fb
0f
18
ed
30
09
f8
03
1d
ed
fc
ec
12
24
09
0e
30
15
16
e1
fe
fa
1f
fb
19
f0
14
2b
1b
e8
fd
ef
fe
01
20
e9
2e
fc
04
01
1a
e1
f7
ed
0b
17
f7
14
2b
2c
1e
fd
f4
fb
0c
01
05
fa
0c
0d
0b
e0
fa
05
00
f4
13
fc
0c
fa
fa
00
09
f0
00
ed
1f
10
f5
0c
15
20
28
12
f4
fc
10
fd
0c
f9
fb
fe
fa
da
fd
11
fd
f1
10
ed
ff
fc
f1
00
05
f6
fb
f5
2b
f6
f3
fd
10
29
1d
32
f8
02
f8
00
f8
02
f6
04
f8
db
ff
1d
fc
e1
01
0b
fd
f3
ff
ff
f7
17
03
fa
26
ed
f2
ed
07
20
08
23
00
03
f2
ff
f1
06
f3
0b
00
dd
02
14
f9
ea
06
20
05
f2
0c
01
f6
27
01
f7
0e
e9
f1
eb
fc
23
fa
fa
06
02
f4
03
fa
0c
ed
02
0f
d8
07
16
02
f8
fc
0e
08
f8
1e
00
f4
1c
fc
fe
1a
e6
f8
ec
f4
24
ed
f1
07
f9
ee
fa
f4
24
e9
f6
01
e5
fe
23
02
0a
fb
07
02
e8
1f
ff
ea
1b
07
01
0c
e2
f3
ed
f4
1d
fd
fc
06
02
fd
fa
f7
2e
f8
0b
0c
f4
fd
19
ff
0d
0a
02
0e
f0
24
fd
ea
16
04
fa
00
d9
ef
f5
f9
1e
ff
08
0f
fa
01
04
f1
2f
f3
10
15
f9
08
25
04
ec
04
06
00
da
23
fc
e9
01
0a
f8
08
d5
ed
f9
f6
fc
f8
10
13
05
09
f9
ed
35
fe
f9
18
15
0a
04
04
03
03
14
03
d1
2c
ff
f2
06
f7
0a
0d
d4
fd
01
d5
f2
ce
0d
fc
02
10
03
06
1d
23
06
22
38
01
d0
fd
24
fd
15
11
e9
27
fd
f1
08
f7
27
00
e5
f1
09
c9
02
df
fb
f5
04
15
fe
46
d4
35
ff
13
24
e9
d1
00
05
ff
df
17
fc
11
ff
ef
03
ff
15
1f
cc
02
28
d9
2f
02
10
d7
04
3f
fb
05
d5
21
2d
32
2f
dc
f2
02
0f
d9
c3
eb
18
d2
fb
ee
23
08
32
34
eb
f7
11
f2
14
f1
fb
e8
02
1b
fb
1f
f4
19
1a
19
16
e1
fd
01
00
e2
e1
04
14
e8
fb
ef
13
17
13
1c
fb
f5
ee
15
12
f3
07
15
fd
04
fa
ff
0c
0a
fe
fc
0e
ec
10
02
f7
ea
fb
fc
01
f9
02
ea
11
06
05
fe
f8
11
0f
16
f6
07
f6
03
fc
0d
03
f6
14
f3
f9
15
f6
0f
f6
05
11
f5
10
0c
e9
12
fa
17
e8
10
f8
fd
fb
0a
1c
20
08
fe
f2
0c
fe
2b
03
e8
1e
e3
f2
32
11
02
ff
ff
0a
fe
02
26
df
13
fd
12
e0
13
f5
fb
df
06
19
00
0f
f5
f9
f1
fc
24
03
01
f5
00
14
19
07
f9
d9
fa
fc
16
fb
1f
d5
0a
05
17
f3
0a
21
0b
db
34
13
f8
17
e4
fe
d8
05
1f
01
fb
fa
fc
fb
24
05
ff
f7
fe
de
eb
06
f2
b3
0e
ff
06
11
1f
1c
0d
e1
26
fa
c5
0c
ef
08
fb
ff
29
01
07
04
09
ef
2b
00
fd
f7
fc
db
00
fd
ed
a5
25
fb
e8
21
09
27
12
ee
1a
e9
c2
17
f3
09
05
ff
1d
03
10
00
0d
fd
2a
fd
fc
0d
fc
c8
09
f5
f7
bd
13
01
e2
1c
fe
04
08
f4
08
e1
e6
19
01
12
1c
fa
10
fa
11
fd
14
04
1f
fa
f9
32
fc
cd
05
f0
e7
c7
0b
07
d9
22
ef
f6
12
fa
05
d5
fb
f6
08
12
1f
fa
02
03
1c
f8
12
0d
12
f6
0a
2a
fa
da
fe
fc
e4
ee
01
fa
dc
1b
ee
eb
16
f8
f5
cd
0a
f6
11
fe
16
02
04
fa
1d
eb
20
1b
19
02
0d
17
00
f2
04
ee
f6
07
0a
fb
ea
06
f5
f6
1b
fe
f9
c1
0b
eb
11
f4
0a
ff
ef
f9
2b
f3
20
23
fc
f8
11
00
fe
05
ff
f6
f6
17
11
03
f5
ff
0b
f6
15
11
00
ca
0a
f2
13
f8
07
02
e6
02
36
f0
24
1a
f5
e7
15
df
ff
13
14
eb
06
0b
17
ff
fc
f3
04
fa
2f
0c
ff
f2
11
05
2a
f6
08
fd
fe
02
21
e3
1c
2c
07
f4
18
e0
fa
18
10
f7
13
11
f2
fb
15
fe
fa
f5
18
10
06
05
23
15
25
e0
fc
fb
11
00
23
d9
14
33
25
f4
fa
e7
02
11
1c
f0
33
09
ea
ff
12
e9
f6
ef
0b
1a
03
ff
26
1a
15
f6
ff
03
1a
00
1b
f3
0f
1f
1e
ef
f6
f6
ff
fc
2b
e7
29
fe
ee
04
0a
e8
e8
ed
13
19
e8
07
19
2e
1f
17
fa
fd
18
04
11
fd
06
12
01
f8
00
0a
fd
eb
17
f7
00
f7
fe
03
f8
f3
ee
f2
24
07
eb
02
17
23
1e
20
f5
00
12
00
0c
f6
0b
0a
f4
f0
02
08
fb
e1
01
fe
f7
f4
f7
fd
fc
0e
f7
fa
2a
eb
ee
01
04
27
1b
34
f1
02
03
fc
fd
f5
00
10
ff
f0
06
14
fa
e2
07
14
fa
f0
07
02
fb
24
00
07
2f
e5
eb
f6
fd
1f
07
12
00
fe
00
fd
fa
09
eb
0f
05
ec
08
11
f8
f5
08
10
07
f1
1c
00
f7
1b
fe
08
21
dc
e3
f4
f5
26
f0
ff
0e
01
03
fb
f3
14
e7
04
18
e9
fb
15
fa
0a
fe
07
0f
f1
23
ff
f2
0e
f9
0d
13
e0
e3
fa
ef
19
e8
fa
0d
03
04
fb
f3
17
e4
f4
06
ea
0d
1b
03
0d
fa
00
fb
e3
18
03
f2
17
f8
15
11
dc
d8
fa
f1
21
f6
02
09
fc
19
fc
f9
1d
f4
0d
0e
01
01
14
fb
0e
08
f3
0e
eb
13
fc
ee
0c
fa
0e
1c
d9
ee
08
ed
13
fa
08
0b
fd
17
ff
ef
1c
f8
04
19
07
fb
0b
fe
17
01
fd
0b
e2
20
fc
fc
04
07
0b
15
d4
dd
11
ee
0a
f7
0d
05
00
22
fa
f6
17
05
06
1d
23
11
e9
01
17
00
0d
0f
e3
2b
fa
0f
f5
fe
08
12
dd
f3
16
da
03
ea
05
f8
02
2a
fa
f8
15
16
07
23
2b
fe
ce
03
2b
02
08
1a
f7
27
05
12
f0
f8
16
09
dd
ef
1b
a7
19
d8
fb
e8
ff
2b
00
54
c2
44
11
1b
26
da
ce
01
1c
04
c0
24
12
09
fe
eb
12
f7
22
3b
cd
fd
30
dd
31
eb
00
cf
01
47
fe
2b
c4
32
3c
3a
2d
d6
e5
fc
14
c8
bb
02
1a
d1
fd
f2
33
08
25
2b
e9
fb
10
e5
10
f5
0c
ee
fe
20
ff
0a
ec
1b
1c
1b
19
e0
f5
02
02
ea
e9
ea
17
e6
05
fa
1a
1c
1a
19
03
fe
fc
fb
03
ff
fb
fc
ff
fe
fe
fe
fc
05
03
00
02
fc
fb
00
01
06
fb
02
04
00
02
fe
01
fc
fe
00
ee
17
11
17
f6
10
e9
00
fc
19
fe
eb
16
e6
ec
21
f6
0c
f4
01
0c
ed
08
0e
f0
12
00
11
f0
19
e9
f2
f3
f0
25
1b
1d
03
07
0e
fb
20
06
f3
09
ea
00
2a
ff
04
fb
02
04
03
f0
1e
e9
07
04
07
e7
08
05
1c
f1
1d
1b
00
0d
e1
e4
e7
fc
21
04
ec
ff
00
1e
1d
01
fb
cb
fe
16
fe
0b
29
dd
20
04
2e
ed
11
21
05
d0
21
1b
ec
16
dc
0b
e4
03
2a
fc
e1
ec
fd
18
24
17
fe
f4
fe
f2
f8
0d
fc
cc
08
ff
0e
0f
17
23
0a
e6
1a
04
c7
0a
d7
17
fb
fd
1e
02
ff
ed
01
07
1e
0e
10
fc
04
d2
0f
12
f6
ce
07
03
f4
20
00
1c
08
f6
1b
fc
c2
07
e8
1b
fa
ff
15
fc
0a
eb
06
11
17
f8
15
fd
fe
c8
12
13
01
d6
0d
01
fc
21
f5
06
0a
fa
0b
f9
e3
04
f5
0a
0a
04
0d
fb
11
f7
0d
11
0c
e6
0e
19
ff
c7
05
f8
f1
f6
13
06
ef
18
ed
03
14
01
02
ea
f8
f9
f7
0b
16
fd
fe
02
1b
ef
16
18
01
e9
0f
25
00
c9
04
f6
ed
0f
0f
ff
e6
17
f8
fc
16
13
fe
da
00
dc
f1
01
13
ff
f2
ff
2c
e4
23
25
f0
e9
14
0f
03
cd
fc
fa
e7
14
04
03
e6
1f
fb
ee
15
14
07
c3
f8
d7
eb
fc
02
02
ec
04
36
eb
23
1b
ee
f3
06
fb
fe
e5
05
ec
ef
14
08
04
e9
19
08
f6
20
1a
f7
d1
fc
f6
f6
fa
0a
02
eb
00
31
dc
29
21
ee
fa
02
ec
f9
fc
06
f6
fa
0b
06
fc
fe
0f
04
ee
19
14
fe
ef
0e
0c
08
ed
07
ff
eb
fa
2a
c3
25
28
05
f3
fa
ee
fd
fe
09
f2
07
15
e3
fe
00
0f
08
ef
09
0f
08
fa
1c
20
14
fe
09
fd
08
fa
25
c7
1a
27
1b
f1
f1
fc
ff
ea
1a
ec
1c
12
dd
fb
f9
fb
f2
e7
11
22
04
f7
18
1e
15
0d
0e
f8
15
fd
19
01
07
0e
10
f0
f4
06
00
df
1d
ed
12
08
dd
fa
f0
fc
ea
ed
15
13
01
03
0c
23
20
28
fc
02
17
fc
0b
06
fe
02
fe
f6
01
06
fb
e8
15
01
fa
f3
f7
fd
f6
0f
f4
f8
2a
f8
f3
07
0a
1e
17
21
fc
f9
1c
00
01
f4
06
04
fc
f7
12
00
02
e2
0a
11
f7
f3
0f
00
0b
14
ee
0a
28
eb
ed
05
fc
1f
0a
20
fd
03
17
03
f3
04
f9
fd
f8
00
17
03
ff
f7
07
20
03
f1
1b
02
02
24
fe
0f
24
ed
ea
f5
f1
13
fd
0e
06
f9
08
03
f7
0b
f2
fd
08
fa
06
0a
f8
0c
15
0f
10
f1
14
03
fc
18
01
13
25
e8
f0
00
f0
10
ed
f5
0c
01
09
01
f5
0c
f0
f8
09
f9
02
01
fe
1a
02
06
0c
f5
18
02
02
0a
05
07
13
ec
e4
fc
f4
02
e3
f4
16
fc
0f
01
fc
0b
ef
ed
03
f8
01
0c
02
0f
fc
00
07
e0
fa
fa
fc
14
f3
04
0d
ec
e0
0d
f8
11
f1
ff
09
01
20
fc
fe
10
f8
04
0a
04
00
05
03
13
03
f4
0b
e5
08
00
fd
08
f2
06
1d
e0
ef
0a
f9
01
ea
05
0c
00
20
ff
f7
14
0f
04
14
0c
fa
00
fc
0e
f9
fc
0d
e7
1a
ff
f6
04
fe
fe
15
e0
e1
12
f5
05
e8
01
0a
01
1a
00
f1
08
08
01
16
25
06
ef
00
0a
07
10
11
f2
0f
fe
0a
f0
f6
ee
01
e1
00
f9
d8
07
e9
09
00
ff
05
02
f7
fb
15
12
15
27
fb
e9
01
0e
04
17
0d
00
fc
02
fa
09
e4
f4
f2
d8
fd
02
b7
33
d2
06
e4
06
11
02
33
cd
45
1b
1c
2a
c0
d7
fe
ff
f9
c9
1f
1c
f1
fd
bd
30
07
1b
26
d7
07
0f
f0
2f
ed
10
d6
03
23
03
01
d4
21
33
31
23
ce
ec
01
f8
d8
e2
ff
19
d2
03
ea
2b
0b
0b
09
ea
06
02
e2
f7
f2
f6
dd
00
fc
03
25
fc
22
12
1b
17
fc
e8
fb
12
e8
06
ed
14
05
05
06
18
17
16
fd
fd
1b
e7
10
0e
f1
0e
ee
01
e7
fb
03
17
0d
fa
ff
0b
f0
0e
05
f5
e7
13
fc
01
eb
05
eb
10
14
ec
f1
f6
08
04
07
fe
05
f4
fd
05
17
fb
f9
04
f8
fb
1e
fd
fc
08
ff
03
f5
fa
0b
f3
08
fc
04
f7
0e
fa
f9
f3
fa
14
21
16
0b
0a
10
01
18
03
ec
1c
da
f5
1e
fb
02
12
03
f6
f9
05
02
ef
04
00
00
f4
04
f0
fc
e7
0c
24
0e
1f
e2
e5
f8
fc
29
fe
d0
17
ef
1c
26
00
ff
d4
02
24
fd
04
34
ee
20
02
2d
df
10
1f
1a
dc
0f
19
de
11
d4
06
e0
01
2e
fc
de
ee
fd
18
1c
14
0c
f3
02
16
01
0c
15
ee
06
fe
10
08
07
2e
1d
df
12
28
cc
0a
d9
15
f1
04
23
fa
f1
dc
f4
1f
1a
06
20
f3
fd
ea
0e
18
08
f3
06
fa
0d
0b
03
19
08
f6
0e
19
c7
00
e1
0d
ef
05
09
02
fa
df
ff
18
0c
f5
2c
ed
06
db
0b
25
06
f3
0a
fd
10
13
00
12
06
fb
0e
03
d4
03
e9
09
f7
fc
07
03
11
df
0e
1c
f9
ee
14
10
03
d5
0d
0c
03
18
10
fb
ff
13
ef
10
06
00
0e
fb
e5
ec
d3
05
0c
00
ff
fa
13
e2
0a
1d
f3
e6
13
15
fc
c9
0b
04
fa
1e
07
00
f6
11
f0
00
0a
1d
0a
f9
fb
cb
d4
f5
0c
00
f5
02
22
dc
10
23
e9
e9
12
10
f9
bb
03
05
f7
11
05
01
f8
1b
ed
02
06
1e
0d
f4
f2
d0
d3
f5
fc
05
e2
fe
2a
df
1f
1e
e8
ea
03
f4
02
c3
03
05
ee
06
02
02
00
27
0b
f9
0b
19
05
eb
f6
e9
df
fa
0a
03
ee
ff
1b
c5
1a
18
e4
ee
00
eb
fc
bf
0a
00
fb
0a
01
03
06
1f
09
f5
10
21
f8
e2
f6
0e
e8
f0
17
fe
f8
03
26
a4
1a
14
fc
f7
ef
ef
fb
c0
21
f7
0f
25
f7
04
f3
03
f5
f3
0e
1f
0c
f3
01
1b
ff
04
13
02
0b
fd
16
c7
0e
12
09
f7
ee
f5
fb
bf
24
ee
18
29
e8
00
f0
ff
e6
fb
07
18
13
f8
fd
24
10
0f
09
02
13
ff
0a
10
01
fe
01
f0
f4
f4
00
cc
1c
f9
0a
10
f3
fd
fe
06
ee
02
14
fd
08
09
01
1b
15
0c
f2
fa
15
fc
04
17
fc
f5
06
f7
09
ed
fa
e7
13
0d
fd
01
0c
fa
02
04
f4
0d
1f
ea
f8
11
f6
1e
0d
05
f7
02
1e
fc
02
0c
02
f7
0b
01
0e
fd
02
fc
16
0e
0c
fd
2a
02
06
0a
f9
13
2c
e8
ff
03
f7
0f
ff
fd
f9
fb
17
fe
00
0e
04
ee
0a
04
02
03
f8
09
12
0d
19
fe
24
fe
04
12
04
0e
20
ec
fb
03
f3
10
f6
f2
07
fc
10
fc
08
0d
07
f7
07
fe
02
06
ff
0d
0b
fe
0d
fd
0f
fe
fd
16
0b
09
16
e9
f5
11
f7
08
e8
ea
0b
f9
0d
fc
02
0b
f9
f8
0b
f6
fc
f7
00
1a
fd
01
08
ff
fc
fb
07
10
07
06
17
f2
ed
10
fc
f7
e8
ee
0e
fd
1b
01
04
14
fb
ed
0c
fb
03
02
04
19
fb
00
0c
f5
ed
fe
07
03
f8
fc
0c
e1
ec
13
f8
05
f4
e4
0c
03
28
03
01
1f
02
ec
17
02
f6
fe
fd
19
fe
ec
11
ec
ef
fa
06
fa
fe
fe
11
db
f8
16
f9
f5
dd
e2
fb
fb
1c
03
00
08
12
f9
13
19
fb
e3
02
14
eb
00
05
fa
05
ff
06
fc
04
fe
06
e4
e6
18
de
fd
da
e7
fd
fd
22
03
0c
e8
1e
0e
19
1b
01
d6
01
0b
f9
02
0c
ff
ff
fb
0d
fb
f3
f2
10
ed
02
03
bf
00
dd
fc
f4
00
24
fb
11
e0
22
16
13
1c
f2
ca
fd
1c
06
04
18
0c
e8
fd
01
0e
e6
ff
07
e1
0f
f6
bb
22
d2
f8
d6
04
28
02
32
e2
33
1d
1c
1a
ad
cc
03
0f
fe
c7
2f
19
f7
fd
d3
10
1b
1a
1d
ef
04
fb
0e
21
fe
1c
de
fe
0f
03
f1
e1
14
20
2c
1e
c8
f0
fd
f1
eb
ed
03
24
d9
00
db
19
0f
fb
00
e8
18
02
02
f8
f5
fb
e7
fc
24
01
17
f9
19
0c
24
19
e4
02
03
15
f5
e4
0d
0d
e6
01
f7
03
0e
1c
16
08
07
f9
07
03
00
04
fc
03
0d
fe
0d
fb
f9
02
04
03
04
0b
00
01
05
f0
07
fa
f8
01
fc
ed
01
fd
ff
e6
01
e8
0d
06
e9
11
0f
04
f6
05
f7
19
f9
ec
f3
05
f7
1b
fc
03
f8
17
07
04
05
01
ef
15
0b
04
e8
f6
02
f6
04
05
fd
08
12
fc
ef
fd
ea
14
da
f2
f0
fe
0b
05
00
17
12
19
04
f3
f3
02
f6
05
f4
ff
f3
d3
00
1f
0c
0e
ee
eb
0a
05
1e
fd
cc
10
db
17
12
02
1a
f9
01
23
03
09
1e
f3
18
02
14
e2
0b
1c
1a
d4
06
1c
e8
0f
e4
04
f8
fb
1b
fe
e4
ee
f9
1a
06
14
10
ec
fc
1c
02
09
1f
0a
06
fd
07
00
04
24
1b
e0
0a
35
d7
0b
e0
04
ef
05
13
fa
e8
d7
f1
1b
0d
0d
2d
f8
fd
00
ff
16
07
06
14
03
1d
fa
06
19
03
f3
0a
19
d8
08
dc
01
f8
05
0b
00
f7
d5
f9
17
09
06
2a
02
fe
f8
0d
1f
0c
08
12
fd
1a
f5
f9
0f
f1
f6
09
0e
e3
04
cf
fc
ed
fc
06
fd
11
e4
09
1d
fe
f8
15
0a
fb
e2
05
0c
0f
14
05
fb
07
07
fa
15
f9
01
0a
03
ea
f3
c8
fa
f3
01
f6
00
0b
f1
04
20
f5
03
15
08
fb
e2
05
16
13
16
05
04
11
0f
f4
1a
f0
0e
0d
08
f3
e0
c5
ed
f6
05
fd
ff
14
e7
0a
29
f7
fb
04
01
fa
cc
10
09
11
12
0b
00
08
09
ff
18
f3
15
04
ff
f2
d8
c2
e5
f5
fb
f3
fe
1c
d0
19
16
f8
fb
07
f9
fe
c7
11
0a
07
0b
17
fb
ff
0b
0a
16
ff
13
03
ec
e8
f8
c0
ea
00
02
f7
fb
12
bd
0d
01
f5
fb
f7
f7
fa
c8
21
f8
11
19
11
fa
eb
12
04
1f
05
19
08
e2
ee
02
c7
f4
13
02
e9
03
15
b8
1a
f4
f5
0b
f6
eb
fe
cd
1d
01
09
1f
12
03
ef
06
fc
1f
f5
10
16
f1
f8
16
e6
fd
08
fd
0b
fd
09
e0
0f
fc
0b
09
f6
e3
fe
d7
1a
f8
17
24
02
03
fd
fd
f2
1f
fc
08
16
f9
fb
1a
ff
01
0e
01
0f
03
02
1b
00
f8
01
03
ff
ee
fb
e0
1b
fe
10
14
0e
04
fa
ff
f9
12
13
f5
0a
05
fe
0d
03
f0
f4
01
1b
ff
07
2c
04
01
07
02
06
ef
fc
fc
1d
00
18
0e
1c
f9
04
fa
f5
13
1a
f4
0a
0f
fd
0c
05
ed
e8
f9
1f
02
0f
22
05
f4
10
02
08
00
fd
09
18
f9
16
01
19
ff
0d
fe
fd
11
1a
ec
fd
13
f7
ff
00
e7
f3
02
22
03
14
1b
0a
f5
0d
06
03
fe
fc
13
0b
ff
18
07
14
01
11
08
fd
0c
12
f5
fd
12
f8
f8
f8
eb
fb
fe
14
fb
16
17
07
f1
03
00
06
f2
fe
15
09
fb
15
fd
08
fb
10
fe
0e
06
11
f4
fe
15
03
f5
f1
eb
11
ff
0e
ff
0b
16
03
f2
08
f8
02
f5
fc
0e
f6
fa
0f
08
f3
ff
19
04
0c
fe
05
f1
f6
0a
fd
f0
f0
df
10
fa
15
fc
11
14
05
eb
0d
fa
01
ed
04
1e
fb
fb
0f
05
ed
03
13
fa
04
fe
01
ee
f6
11
f5
fa
e7
d4
0a
f9
26
01
10
08
0a
e9
0f
06
fd
ec
03
1d
fd
eb
08
00
f2
03
11
eb
00
02
0a
e7
f8
04
f0
f2
da
ca
f5
02
1c
fe
21
f2
22
f8
0b
11
04
e3
fd
10
f2
f8
0f
f6
eb
fd
11
fa
ff
01
fe
e4
f9
0e
ec
ec
ed
de
f0
fe
21
fd
1a
f2
1a
11
09
06
04
c8
01
12
f7
fc
19
00
e9
fd
19
f7
f5
f1
02
fd
17
ef
d4
f0
e8
fc
f7
01
10
01
06
fb
0c
0b
0a
0b
f8
ce
fb
1d
0b
0c
1c
07
df
fe
08
0b
f0
f0
02
f2
15
fd
d9
02
e9
00
d2
fc
33
00
14
fa
15
17
26
0e
c0
dc
06
16
02
df
27
1e
df
01
f5
0f
ff
0b
0c
eb
02
10
e9
20
ff
14
e2
02
2e
02
28
e3
23
22
2a
1a
d7
f8
fc
06
ed
d4
fa
20
d9
03
da
17
0b
12
1a
fa
1c
08
14
f7
e5
f0
f1
fb
16
fc
0c
02
09
01
16
0d
ef
11
00
0d
fe
e7
04
07
ef
fe
f3
01
01
11
06
fc
04
01
05
03
ff
fd
fe
fb
03
fb
fd
fe
04
fb
00
02
05
04
fe
02
01
fe
05
03
04
ff
01
00
ff
05
fb
f1
0f
fa
09
fa
f6
11
10
01
f3
05
f9
05
f6
ef
f4
09
0e
0f
fc
04
f1
12
f3
06
14
05
ef
0f
0e
06
ef
f3
eb
ff
f5
06
09
fe
08
fb
06
04
f9
fb
ee
fa
f8
fd
13
01
02
14
0e
fd
05
0d
f3
ff
f3
11
eb
1f
03
d1
04
1e
ff
07
f2
e4
00
00
29
00
e7
06
e2
11
18
15
0d
f1
fb
2a
00
f1
24
15
17
00
0c
f2
11
26
1f
d4
0c
16
f6
08
eb
f1
ee
ff
17
03
fb
ed
f9
1c
f5
15
09
f4
ff
25
f6
f2
19
21
07
02
0e
05
0e
32
19
e4
1d
1e
dc
ff
e7
f5
e0
03
fa
02
f0
e4
fd
0f
f0
17
22
f9
04
24
f0
19
05
0d
0d
01
17
02
11
2d
fd
e8
1d
19
e6
04
d5
eb
e0
fa
0a
ff
fc
e9
02
1f
0b
0b
1c
fa
ff
08
00
08
11
0d
06
00
21
f5
07
13
eb
e8
0b
1b
f8
02
c7
d7
ec
fc
10
fd
0f
f2
1d
28
04
0c
18
02
01
f5
07
06
1b
05
0e
01
1f
f1
fb
18
f1
fe
0f
0d
ea
f4
cf
e0
e3
01
0b
01
06
f7
07
19
fd
0e
0f
04
00
00
0b
15
23
11
0e
f9
1c
ff
f9
26
ee
05
09
04
f8
f1
d1
df
e9
01
02
04
05
f8
05
13
06
06
0a
00
03
fc
18
0a
2c
10
18
fa
0f
f1
fa
2d
e8
0b
0a
ff
f9
ed
c5
e4
f6
03
fb
00
0f
e2
0c
05
f6
0e
04
04
fc
e9
19
00
1e
06
19
fc
fe
f3
fb
29
ea
04
05
ed
e3
f0
c7
f5
02
01
0a
00
11
da
07
ff
0c
11
f5
01
fa
fc
22
fd
18
18
1c
03
ea
fd
f3
31
ed
10
10
ef
e9
ff
c3
fc
17
fc
03
04
0e
e9
0f
f0
fd
17
f5
00
fe
fd
1c
ff
0d
21
21
fe
e9
f7
ec
31
ed
0f
15
fd
f9
04
e7
f7
0e
00
fe
fd
07
07
0d
ee
fd
14
fe
f1
03
02
15
08
0f
16
1f
01
00
f9
04
22
ea
ff
0d
ff
00
10
f3
ee
11
03
ff
02
11
30
08
eb
fe
04
ff
f6
fb
08
23
05
12
16
28
fe
06
f5
04
10
fd
00
0c
06
03
03
02
ec
02
ff
11
ff
15
24
0d
f2
0b
06
0f
fb
fc
0b
1f
06
0b
0d
26
fb
02
f9
f8
0f
fe
00
08
09
fc
f6
0c
ee
f8
01
16
03
14
28
ff
f7
09
fb
04
fe
04
12
16
fd
16
04
0d
fd
08
fb
fe
0e
07
fb
06
10
f4
ee
00
f2
0a
f9
1f
f9
18
25
04
f4
0b
01
0d
f5
fc
13
13
fd
1a
05
04
ff
16
f2
f7
08
03
f7
07
16
f8
e4
fa
e1
0c
fa
2a
fc
26
17
01
ee
12
fb
04
eb
fe
10
0d
e6
1e
fd
01
f9
1e
e5
01
09
05
02
00
0f
f7
e0
f5
dd
08
fc
1e
03
1b
1a
09
f1
09
00
f3
ef
fc
10
fa
ed
13
0d
eb
04
16
ed
0f
06
ff
fb
f1
19
fd
ef
f1
d6
11
02
25
fe
21
06
0c
ef
09
f5
fc
e8
fb
1b
fa
e9
12
0d
f0
02
17
d5
0a
07
ef
f6
ed
0f
f7
f6
f5
ce
08
fe
27
f9
1b
f5
0e
ef
03
01
03
e7
04
1c
fc
e6
0c
ff
e9
02
0e
de
f7
05
f9
f4
f6
08
f3
df
f6
da
fc
fe
15
03
1c
f8
0a
fb
fe
fc
07
e3
02
1a
fd
ff
0e
f8
d0
03
15
f3
ec
0d
f2
ee
f5
02
e6
ed
f3
e0
f0
02
11
fb
15
f4
11
0b
fc
f3
ff
d1
04
1e
f4
fd
13
06
d2
fd
1d
f7
eb
03
ff
ff
14
ee
e4
f9
fa
fa
e8
ff
0b
00
08
05
09
09
0b
ee
dd
df
03
14
ed
fe
10
07
ca
ff
fb
14
01
f3
0b
0c
1d
eb
e5
f1
0c
0a
df
05
06
fd
06
05
09
fb
1e
f9
df
e7
00
1e
fe
03
1b
2a
dc
05
03
1b
fa
0d
f8
f6
06
fb
f2
19
ef
05
ea
01
1e
fc
10
ff
0e
18
19
0b
e0
fb
04
ff
fd
e3
01
1b
ee
00
e5
fd
02
0d
0f
02
10
f6
03
f9
08
02
00
00
09
fe
fe
0a
ec
f7
06
03
f9
01
00
04
05
02
06
f4
f2
03
03
01
f6
fc
fe
11
0b
f6
0c
f6
fa
f8
ff
05
0f
ff
09
05
f3
f3
0f
ff
ee
12
fe
f9
10
f2
0d
f8
f1
00
f6
f8
f0
f4
fd
f6
fd
0f
0a
1a
05
ee
06
03
23
03
04
03
fd
05
1d
04
f5
16
02
00
f5
f7
01
05
ff
01
00
f9
0b
08
0b
ed
f9
21
f9
19
04
e5
05
02
2a
fd
02
f7
07
10
21
13
f7
e9
02
0b
e7
e7
19
12
09
02
07
f7
14
2a
1d
ed
0d
16
01
fc
ee
e1
fb
02
2b
ff
f7
0b
03
10
0f
1c
fb
e7
02
1f
fe
d9
20
11
14
fa
0d
eb
10
31
16
f0
2f
0b
fa
f2
03
f4
e0
00
13
03
f8
02
f5
12
f8
0a
0b
f4
fb
1e
00
f2
20
12
f7
04
1a
fd
03
18
01
e9
36
04
f2
e5
05
ec
e6
fa
03
fa
06
fe
fc
11
fb
04
0b
07
ff
15
fe
f2
09
11
f1
02
16
fc
f8
15
f7
e9
36
10
f7
ee
f2
e4
d5
fd
06
fa
0b
07
10
1a
04
0a
18
01
fd
0b
fc
06
15
fb
03
03
24
f4
fa
06
dd
eb
22
07
f7
ee
f0
d5
e0
03
09
fc
11
04
0d
1b
fa
06
13
0a
02
17
03
07
19
fc
03
04
27
ee
f3
0f
e7
fd
0f
ff
f1
00
f4
d4
e5
fc
fc
fe
0a
07
02
0e
fe
01
10
12
ff
19
17
01
20
fa
08
ff
14
f1
f3
13
eb
10
02
03
f0
01
eb
e5
ea
00
f5
fb
0d
f5
0e
fe
f5
07
0c
12
fc
08
1a
03
1d
07
0a
01
0d
fa
f1
1a
ea
0a
0f
fb
fb
f5
e2
e4
ef
fb
fd
00
12
f8
09
00
f9
09
fb
18
04
0e
16
fd
1a
0c
0c
fb
fd
f7
f1
1e
e0
06
01
f5
f5
f8
e7
f1
05
01
f7
00
12
f5
10
fc
f6
14
06
0f
fa
1f
21
0a
14
0b
1c
fa
f8
f6
f3
24
e7
12
01
f5
f9
f7
e3
f1
0a
00
f2
ff
12
09
12
fa
f9
0f
07
fa
fd
22
19
08
17
17
1e
03
f6
f3
ff
24
e8
15
ff
f8
07
fe
ec
f1
12
fc
f7
ff
13
16
0f
ef
f8
11
0b
f2
01
22
1f
0d
16
15
26
fe
05
ec
fd
1d
e4
15
02
f9
0d
f8
f8
e8
19
fc
fd
fc
1e
25
11
fa
fa
08
15
f5
fc
1e
21
00
1c
1b
24
fd
0e
ef
fd
14
dd
09
08
00
07
ef
06
e6
19
f9
05
fc
18
25
09
f3
ff
fd
1a
00
00
1d
14
05
0d
13
1a
04
11
f6
fc
11
e0
02
08
09
05
fd
03
ee
0b
01
07
03
15
22
0a
fa
ff
02
0c
00
ff
11
0e
fc
13
14
12
fc
0b
f5
09
0c
e9
07
ee
0c
fd
f7
fe
e6
13
00
16
fb
20
0a
0f
fa
08
ff
05
f8
fc
0e
18
f5
20
0e
0e
01
10
e6
02
0e
e5
03
ef
0b
f5
ec
f7
cf
09
01
1b
00
20
17
0b
e8
0c
04
f6
e8
fd
0d
09
df
1a
0c
02
fb
0f
dc
06
10
f3
ff
e9
17
fe
ee
fb
d8
0d
01
1f
04
21
10
10
fa
07
10
f3
ef
fd
17
fb
db
18
19
e9
fd
0b
e6
0a
13
ec
06
f6
06
fd
dd
00
df
0b
ff
1c
03
13
04
03
fd
fe
ff
00
f4
fb
1d
01
e9
10
0d
dd
fc
0d
de
ff
0e
ed
08
f1
05
f6
d8
08
e0
07
02
14
00
10
01
fc
f5
f9
fb
07
f7
fb
1a
11
f0
0d
05
c4
fe
0d
ef
f0
10
f3
00
d9
02
e5
d4
f6
ea
fb
04
17
ff
1f
ef
11
05
f2
05
10
e7
ff
2f
06
f2
0b
0d
cb
fd
08
f3
ee
1c
f6
02
e1
00
da
f1
fe
ec
ec
fd
1c
fc
1f
e3
17
15
05
fa
fb
db
fd
2f
f7
f3
07
0b
b5
00
03
0f
ec
1c
ff
15
12
e4
e0
f7
05
13
d9
ff
fe
fa
0c
fd
0b
02
16
ec
e3
f6
fa
18
ee
f5
0e
17
bb
01
fa
1d
06
fc
f6
12
0d
f4
fb
e4
f7
0c
e3
04
09
02
fc
0a
03
ff
1e
06
eb
eb
05
1d
02
ff
1e
20
e6
02
03
0f
fc
0f
eb
eb
e7
fe
e0
f5
eb
11
08
fc
1d
01
16
ff
18
02
08
09
05
fd
fe
11
08
ff
fc
12
0a
01
ea
0a
ff
17
01
fb
fd
04
02
04
fe
04
fe
02
00
ff
ff
fe
00
ff
fd
04
fd
01
ff
04
ff
01
fa
fa
fe
00
ff
fd
04
04
01
0c
09
f9
0c
f4
f6
f8
f8
00
10
05
0d
05
f7
fb
06
fd
f2
0c
05
f8
0b
f5
0e
f9
f2
ff
f8
f9
f9
f0
fe
0b
0d
0c
1f
02
fe
ef
ff
00
13
01
ff
09
f5
04
17
02
f4
0f
05
f8
02
f0
01
f5
0b
00
0b
ec
0e
f4
06
ed
f9
12
f8
1e
f8
e3
fc
01
1e
04
fe
fe
fe
0c
19
15
f9
f0
00
0d
ea
e6
09
11
07
fb
04
fc
0e
27
1e
f4
0c
26
f9
00
04
e0
eb
02
2b
05
03
07
0b
01
0e
0c
03
d2
03
1e
f6
dc
0f
07
14
fd
17
ee
19
32
14
07
24
02
01
fa
1b
e9
ec
fb
22
01
fa
0b
f4
1b
09
fe
f7
e5
ff
1b
12
f1
28
12
f9
04
20
ed
08
0f
f7
f8
47
f3
04
f1
ff
de
e5
01
15
02
09
0c
03
20
11
fe
e6
18
02
08
00
e1
10
1f
f7
01
0f
f6
f7
06
e9
e6
3f
05
02
f0
fa
e5
d4
01
0d
fc
0c
01
15
21
fe
11
02
1f
fe
09
e3
f9
fe
0f
fd
ff
15
f5
02
02
e0
ee
23
09
f9
fb
02
f4
dc
04
fc
fa
06
fe
17
15
fa
13
0e
18
02
17
f1
04
08
0f
fe
01
0f
fc
01
04
e3
f1
1a
05
f2
fc
fd
f8
da
01
fe
03
0f
06
14
08
f8
0f
08
1a
fe
23
fd
fc
0a
08
f6
f9
fb
04
f9
10
e8
f6
0b
00
f5
ff
03
f2
e4
fc
fc
04
0b
fb
15
07
fd
0e
0a
1a
04
25
0c
fe
0e
07
01
fc
01
01
f9
17
e6
fd
fc
0d
ff
00
fb
fe
e7
fd
f1
04
0e
fd
13
fd
fc
0c
08
19
02
1e
0c
fc
0c
01
07
fc
f6
ff
fc
14
ee
02
f7
11
fd
02
02
ff
fa
fc
ee
ff
11
00
14
04
f2
0e
1c
0f
fe
2f
08
02
06
02
0e
f9
07
00
05
14
e8
07
f3
00
fd
f1
f8
07
fe
fc
e6
00
10
10
16
04
e5
08
15
00
00
29
12
08
02
07
15
02
07
0b
0a
0f
e6
12
01
01
05
e8
f7
f5
0a
fb
f4
ff
1d
11
15
fe
eb
10
22
f9
02
23
0f
0c
fa
07
22
01
09
06
08
18
e0
16
03
04
0b
ec
fd
f7
17
01
f3
f9
12
16
0e
f4
fa
07
1d
f8
00
18
08
0e
00
13
17
01
11
fe
05
09
d7
0a
fa
04
15
f5
f8
f6
2c
fd
fd
fb
0c
1d
08
f3
fb
06
1d
fa
03
1e
11
0a
0c
0c
21
01
0a
fc
07
11
d7
0f
fc
05
06
f5
01
f2
20
00
fa
fd
04
0d
07
f9
ff
08
12
f2
02
1b
04
04
0c
09
0d
01
0a
ff
0a
15
d9
0d
ef
0b
06
ed
03
f0
1e
fc
0d
ff
0b
11
fd
f4
09
15
0b
ee
fc
13
04
ef
13
07
01
ff
0e
f2
07
16
d7
08
e3
0f
fd
e4
00
de
0b
03
1d
fb
17
08
01
f3
0a
19
fb
e8
fd
11
ff
e7
12
04
e8
f9
0f
ec
f4
19
d7
02
dd
0a
fa
ea
fd
e5
0d
fc
2a
01
18
08
fc
fc
0f
16
fa
ee
fc
0d
0b
e4
1a
18
ea
fd
05
e9
f2
1c
e2
03
e2
11
f7
e1
08
ea
ff
fd
1d
02
16
00
03
04
ff
ff
f3
f1
f9
1a
0b
e0
0f
13
cd
fd
05
f6
f8
1c
e3
0e
db
0a
f0
df
09
fb
09
fb
19
00
1a
ed
0a
04
f2
f4
fe
fa
03
1a
06
da
fe
13
c2
fb
00
f9
ef
20
f6
f9
dc
0e
ec
e5
0c
f9
f9
04
0b
fc
20
e1
05
07
f8
06
0f
ee
fe
2a
ef
f9
ea
15
c2
fe
09
14
ff
29
fc
03
fa
fc
e9
de
18
00
ef
fb
08
fe
10
de
07
0a
f7
f2
11
eb
01
2a
ec
0e
ee
02
bc
ff
10
1a
02
20
f2
18
01
f4
e4
ef
09
23
da
fc
fc
03
0c
ee
08
07
0f
f1
f0
f9
ff
17
e8
03
00
0f
c6
04
fe
2f
09
03
f5
15
f9
fd
08
ea
fe
06
eb
fb
00
fb
07
f2
05
f6
07
0b
f4
00
01
10
05
fe
12
16
f0
02
00
0c
f7
06
e9
06
05
ec
e4
f0
0c
0a
1e
04
01
04
ee
f7
ed
f0
f9
fa
11
05
ff
0e
1e
0d
17
f8
09
fe
fc
e9
e3
fa
f2
fe
ff
fd
fc
02
00
00
01
06
fb
fb
fe
fc
fd
ff
01
00
00
07
03
06
01
02
04
03
06
04
00
02
05
06
00
03
04
fd
01
04
fe
02
fb
03
fb
05
02
02
ff
fd
fe
01
ff
fe
03
fb
fc
fb
fb
fc
01
04
01
03
05
fe
ff
fd
06
ff
02
fe
fc
fb
03
fd
00
ff
fc
fe
ff
03
01
04
02
02
02
04
fa
00
04
04
fb
02
fb
fe
ff
fe
00
f0
01
1e
f9
ff
f3
e5
f8
ff
1e
fe
fd
06
f1
fe
11
02
13
e2
05
1c
04
ea
11
02
18
fd
15
e6
19
18
11
e5
fc
2e
fd
09
20
db
03
fd
1c
fe
df
08
da
e6
05
0c
23
c2
01
2f
f5
11
03
f2
25
03
35
eb
26
21
0d
e7
01
10
f7
09
10
ea
f1
05
15
ff
d6
fb
df
09
0f
17
02
dd
fd
33
18
07
2b
12
15
fd
1d
ef
08
1b
fa
ee
2f
e6
ff
fd
06
e9
f7
ff
0d
ff
ec
f1
e7
02
0b
16
f5
fe
fe
23
08
f3
19
1e
0e
f9
14
f3
09
0c
ec
e3
21
f2
02
0c
01
f9
ed
fd
08
fb
e5
f9
f6
0d
0d
17
f4
1d
fa
20
ea
ff
00
21
06
04
02
f8
03
08
f2
e2
10
01
0e
18
0d
fd
e5
ff
06
fe
eb
f2
06
0d
07
18
ff
2a
03
25
da
fe
f3
14
06
ff
00
fd
0e
02
01
f4
14
12
f2
f7
0e
02
e3
05
05
02
0a
e8
07
04
fa
04
1d
12
04
2d
ec
0d
f0
00
ff
02
0f
01
fb
09
f4
f5
0e
0f
ef
f9
ff
04
e6
00
08
03
04
01
0a
04
06
1a
18
1e
f9
30
fe
01
fb
03
05
f9
00
fd
f4
10
e8
f3
0b
0d
f4
f9
08
05
ec
fe
00
01
fc
10
03
06
00
17
21
15
01
3d
f8
09
f9
02
09
01
01
02
fe
0f
ee
f9
0b
19
fc
ff
06
02
f4
00
fe
fe
08
07
07
0e
09
1b
1e
03
fa
37
ff
05
f6
0c
fb
fa
fd
04
07
16
f0
09
15
06
0d
f2
f3
01
08
01
fd
fb
14
0f
12
0d
f8
0e
25
03
00
2c
0a
03
f9
03
fe
02
02
0b
fe
09
e0
08
0b
0e
13
e4
fb
f8
1d
fb
f9
04
0f
0f
19
0f
f9
11
2b
ff
fe
20
f7
0c
f6
07
02
fe
0a
04
fe
04
e1
0d
fd
0b
12
ee
f9
fd
2b
fc
f7
01
14
16
0e
04
f8
18
29
06
fc
22
fe
07
fa
fa
fd
03
00
07
ff
07
e8
09
f3
0f
19
f2
f8
ff
26
00
fd
01
0b
13
0d
01
fd
14
1e
fb
fb
1e
04
04
01
08
fa
fc
0c
03
fe
14
da
19
ee
12
12
e7
03
03
26
02
03
00
03
0d
08
05
f7
17
1b
ee
fe
18
05
fa
0a
f9
e2
fc
0c
fd
f8
12
d7
0e
f7
13
13
e9
07
fb
18
fd
02
fb
0d
0a
fa
00
ff
1f
0b
f2
04
15
f6
e6
ff
fa
da
01
0e
fd
fc
16
d5
0b
da
1e
0d
f3
0e
f4
0b
01
0f
01
1f
fa
0d
f8
05
15
fd
ea
fb
03
f3
d2
06
05
e9
00
06
f8
fd
1a
e2
15
cc
1f
fd
f4
0e
f7
f8
02
19
fd
29
eb
11
08
fd
16
fa
db
fa
05
fa
d3
0d
0f
e0
01
06
fd
f3
1a
f0
0d
d6
1c
f2
e9
16
f9
fd
01
0f
01
2b
e5
07
04
ed
f5
fc
e3
00
14
01
df
04
00
c7
fa
07
fe
eb
17
e2
0d
db
21
e3
f7
1b
f9
f7
00
fe
fa
32
d4
13
02
ee
f3
06
ed
05
09
f4
e0
e3
08
d1
04
fa
15
f5
1f
01
03
f0
18
e1
f2
15
f1
e9
01
ef
00
3b
d3
25
00
e6
fc
02
e0
03
24
eb
f4
e0
09
cb
fc
02
1c
08
23
fe
10
0e
20
e2
e1
1c
f5
d6
fa
eb
ff
24
cd
18
f5
eb
f2
14
db
01
23
e4
10
f5
ff
d1
fc
20
26
15
1b
f5
0b
0d
17
e4
eb
fe
05
d2
03
ed
fd
0e
e8
0d
ed
fa
ee
f8
ee
ff
1d
e2
09
fd
08
e6
02
0e
28
18
15
f9
07
e7
0b
f5
f2
fb
03
fd
01
f7
00
06
dd
fb
01
fb
18
02
fe
04
11
0e
02
10
0d
f3
05
fe
05
f3
16
f1
02
0e
f4
fd
f2
14
fe
0f
00
0a
fb
e6
04
e0
fc
0c
fb
f6
05
ff
06
27
fa
22
0a
f2
ff
f7
eb
e0
fb
f1
fb
ff
04
02
ff
00
03
05
04
01
02
fb
ff
02
01
fe
05
02
ff
05
06
fe
02
ff
03
fc
05
ff
04
00
00
fa
fc
04
01
04
fd
04
04
ff
04
ff
00
01
03
04
ff
fd
ff
fa
03
00
05
04
02
03
fb
fd
03
00
05
ff
01
05
04
05
03
fb
04
04
fe
03
00
01
06
05
fd
05
fe
00
fb
04
00
fb
05
ff
01
fd
04
fc
04
fe
fe
00
fb
04
f4
03
04
07
02
0b
fb
ff
fe
0c
ff
ef
0e
e8
fc
10
09
fb
02
00
02
ff
07
05
04
04
00
fe
ff
03
fb
05
d4
01
13
14
05
23
f5
0e
00
0b
fc
cb
18
d2
e0
0e
17
21
e3
fd
24
e6
38
1c
e9
2f
02
20
e8
1c
01
f8
da
0f
fb
19
25
0a
f7
04
00
05
ff
c3
14
bd
dc
24
12
f4
00
fd
28
e6
27
0a
0f
27
04
03
f9
3c
05
09
f1
1a
dc
16
1d
0d
fe
06
ff
f3
02
c5
01
c0
dc
0b
0e
e5
1f
fb
1c
fb
14
ff
14
06
fc
ed
07
2b
f5
09
e2
0d
f3
19
24
13
ef
f4
fb
ff
02
c8
08
ca
ee
16
0b
f0
1c
ff
28
e7
0f
07
11
14
02
01
f9
13
ef
06
e5
07
04
0c
23
18
ee
e6
fd
f4
ff
cf
08
d7
e3
0f
02
fc
15
ff
38
d8
0e
f8
fe
10
03
00
fb
14
f9
10
f5
0b
fe
06
16
0b
f4
eb
fb
fa
fb
ed
01
ed
ee
ff
04
14
14
01
34
dd
18
f5
01
09
fc
0b
fa
07
f8
05
f3
07
03
f7
07
06
f9
f0
01
03
f9
ed
01
f1
fb
05
0c
22
12
03
30
fa
0d
02
ff
02
02
10
ea
f4
f5
fd
f5
0c
0a
09
05
0f
fa
f8
00
e8
fa
f2
15
f5
ff
02
0a
26
0e
02
2c
ec
12
f2
f6
00
fb
0d
f0
08
eb
fe
fb
fb
0f
0f
0a
0e
f9
0d
fe
f3
04
f1
12
fe
13
08
10
2d
12
fa
2a
ed
14
f1
03
f2
ff
12
eb
00
ee
f8
fc
ff
10
07
f7
f7
f3
0e
05
f7
fe
fa
12
13
10
07
1b
32
01
05
34
f2
1b
f5
02
f7
fd
13
f8
01
04
ed
fa
f8
1c
0f
f9
f4
fa
1b
fd
07
fc
f3
14
0c
14
0b
26
36
f9
02
2e
ef
21
fc
04
e8
fc
18
00
ff
05
e9
f5
ed
1f
0b
ff
fa
fd
1b
fe
0d
fc
f5
06
18
17
0a
32
2a
f5
fc
2e
f7
1d
ff
0c
d9
00
0f
01
fb
0d
f5
0c
f8
1d
09
fa
fe
fa
0f
02
fd
fd
f8
07
16
0a
f0
29
1f
f5
01
29
f1
19
fc
07
cd
03
14
fd
fb
11
ec
14
eb
26
12
f8
01
fc
17
01
f9
00
f6
fc
0d
0d
ed
1f
1e
f3
fd
1b
ef
0f
f8
f1
c8
05
18
f8
03
05
f9
03
f9
0c
fb
fd
04
05
f4
fc
fb
01
f6
12
06
fe
ff
27
f8
e7
fb
1b
e1
f4
04
fc
cb
01
0f
00
0a
11
f8
14
f4
12
fa
f1
0f
07
ed
03
01
fb
0c
f3
09
f4
f1
1e
0b
e3
05
17
e7
f6
f7
f4
c8
fc
0e
0b
f1
10
f8
12
e6
13
05
ee
1c
06
fb
fc
f2
01
0f
e1
0f
0b
e4
18
0a
e7
05
02
f1
ff
f3
f6
b8
fc
0d
06
ea
f8
ec
0c
f7
0e
f0
04
27
0b
f4
02
ea
fd
10
e7
07
00
ec
f9
f7
df
02
02
e1
fd
ec
f8
cf
fe
12
18
fb
07
03
00
fd
17
de
0e
1e
0a
ec
fe
f6
00
07
f5
0a
f3
ee
f3
e8
ec
02
05
e3
ea
f3
f5
dd
fe
06
17
0c
0c
16
09
0f
22
dd
f0
27
07
e8
04
e6
fb
1c
de
03
ee
ee
ee
07
e4
05
1a
f1
f4
dc
fd
de
fd
0b
21
0a
18
07
22
21
26
f0
e0
2d
fb
d8
04
ec
ff
27
e5
09
e9
ed
e9
0d
ea
fe
09
e5
fe
e6
fb
e1
ff
24
25
11
0b
fb
fe
0b
11
d9
f7
ee
fe
d4
02
ff
01
1a
e1
25
00
0f
0a
f8
e1
00
0b
f3
fc
fb
20
f0
ff
03
1c
1b
1a
f6
f5
ea
14
ed
15
e2
fa
e9
fc
10
02
1f
e8
23
16
0d
00
e7
f8
fd
09
13
d7
05
1d
f0
03
d5
02
fb
15
11
f4
fc
fd
f5
06
f2
fe
04
fd
0c
05
04
14
0a
05
0a
f0
f0
ff
fb
f7
10
ed
0e
0b
fa
03
f4
f4
fc
09
0c
05
ff
05
fc
02
fd
05
04
05
01
fc
ff
02
fb
04
ff
03
fc
fb
fc
00
01
fb
fb
fb
03
04
fc
fb
04
01
00
00
00
00
02
fc
02
00
03
fd
fb
05
fe
03
fc
01
fb
05
fe
00
00
03
ff
fb
fd
fb
01
04
02
01
05
00
04
fc
00
ff
01
00
05
ff
00
05
02
fb
01
02
ff
05
05
05
fd
fb
02
00
01
fe
fb
01
01
ff
fb
03
fe
03
01
07
13
09
f3
f6
0e
f5
eb
fc
05
02
0e
f6
fe
f2
09
f0
11
f5
fe
07
05
f3
08
e7
06
03
11
01
0f
07
16
f9
e9
e9
f1
f3
07
11
02
03
f5
03
e8
f9
dd
11
fa
20
02
02
03
11
ff
16
12
15
09
fb
ed
14
f5
03
fa
ee
fc
ed
05
17
11
07
f9
04
f0
02
d9
fb
bc
e6
0f
11
f3
07
04
07
db
16
f8
12
fa
fc
eb
0d
11
f8
12
e0
1d
ee
0d
25
24
fb
dc
02
e8
04
dc
f6
c6
d7
0b
f9
e6
06
fc
0e
c2
06
eb
fa
f4
fa
f6
0f
2a
ea
14
e2
0f
02
0f
1a
21
e9
e9
05
e6
fc
e5
02
ec
dc
13
fc
f5
fb
fb
26
ca
10
f2
fc
0c
ff
0f
fc
29
e1
12
e1
16
02
11
1c
1d
e2
d6
fc
d9
00
d6
16
e2
e1
11
05
f2
f6
03
2d
be
16
f3
03
0c
02
14
fb
32
e1
11
e0
23
ff
25
1d
18
db
d0
fc
dc
05
d2
22
d6
d1
11
0a
ec
fc
fd
33
b2
19
ec
0b
03
ff
1c
f9
3e
ca
0e
e2
18
0b
12
11
23
e6
d9
04
d9
06
cb
1a
d0
eb
10
0b
ff
fd
01
34
d1
29
f7
0e
f7
fb
20
f4
2a
c6
09
ec
fd
23
0d
1e
34
ec
e9
fb
d3
06
da
0c
d8
f9
0e
08
0a
fc
03
2d
d3
38
ef
fe
f1
fb
2a
f2
1c
cd
12
ec
f5
15
16
1c
1e
ff
ec
03
e3
02
d1
15
e4
f9
18
0e
0d
01
04
2c
d3
45
fe
0a
da
fe
23
f3
1d
d4
0a
ec
05
18
13
18
17
ee
e0
05
f4
02
da
27
ea
fe
1a
1b
fc
fb
fe
2b
c5
3f
0a
16
b5
06
2f
f1
25
d4
00
f2
00
24
0b
0f
24
fc
f1
ff
f2
00
e2
14
e8
ff
0e
16
09
f4
02
31
c2
33
fc
0f
9b
02
30
f9
21
e2
0e
07
fc
27
0e
0d
1b
06
f2
fa
e7
ff
e8
ff
02
ff
03
17
00
fe
fe
16
d0
32
f7
13
9c
00
24
f9
19
e5
13
00
01
1c
fa
0a
1b
0e
00
05
e5
ff
e1
01
05
05
eb
1a
0b
f7
01
1c
d6
39
f9
13
9d
04
29
01
09
e3
fd
05
10
19
fb
07
19
11
fa
00
de
02
d9
09
06
fa
e8
1e
01
f7
00
11
cf
3d
00
02
b5
03
31
09
0d
e6
ff
0f
11
0b
fb
00
17
0d
f0
01
e7
fb
d4
04
fe
f9
e5
29
fa
eb
04
0b
d1
3d
fe
f8
c3
05
2d
03
16
ed
fe
0c
0b
fe
0a
fa
29
0f
e5
01
e7
03
db
0e
fa
e0
e9
2b
fb
e5
01
10
cf
2a
01
f4
d0
02
20
08
12
fe
06
01
17
fe
0c
f5
21
06
cf
ff
d4
01
e5
12
08
ec
e4
23
f4
dc
ff
0c
c7
33
07
f0
da
fe
31
14
1c
06
f6
10
22
f4
f8
fa
28
04
ca
fc
d0
fa
fb
0c
0a
dc
e8
fd
f0
de
ff
02
cb
15
f5
ed
e4
fe
26
27
23
f5
0b
0a
21
f3
f1
f4
21
1c
e5
ff
ca
fd
e5
22
ed
d1
de
fc
e8
e6
fe
0c
d9
1f
fc
eb
e7
ff
14
34
2a
e9
ff
00
18
ec
ea
e5
11
1f
f1
fc
e2
05
e3
16
de
d0
d9
fd
04
de
04
1d
ed
23
01
ef
e7
04
18
16
0c
02
fa
0c
12
ef
eb
d8
16
1a
e8
06
f9
fe
ef
12
e1
ea
f2
f2
1b
ea
fb
15
f6
1a
f8
e9
e6
fc
1c
0e
0a
01
f9
fe
10
ea
f3
dd
f5
1b
eb
fd
0b
04
e2
1f
e6
fa
04
04
0c
ea
00
17
ff
21
08
e7
e8
04
25
0b
0a
09
e1
f7
00
fb
f0
09
f5
05
ee
fb
07
01
0a
0f
08
05
02
ec
f6
fa
fd
04
05
f8
07
07
ff
01
fc
01
06
03
13
f4
f9
09
f7
04
fa
fc
02
01
0c
00
09
fd
06
0c
07
04
f0
fb
04
fb
0e
fb
04
0a
01
04
f6
fc
f4
05
0d
05
04
fd
01
01
02
05
ff
fe
01
fb
03
00
fe
01
00
02
01
00
fe
fe
05
00
fc
01
00
fc
05
fd
fd
fc
04
ff
fc
01
04
05
03
fa
04
03
ff
00
02
05
01
00
00
04
ff
04
00
04
03
05
fe
02
01
ff
fd
ff
fc
01
ff
04
fc
fe
fe
fc
01
03
fc
01
fc
fd
fc
04
fd
00
00
fe
04
04
02
fb
04
fd
00
fc
fc
00
fc
fe
02
06
00
05
ff
fb
03
00
02
fc
fc
fc
00
fd
05
fc
fe
ff
01
01
04
01
01
01
fb
05
fd
fb
fb
02
05
ff
fe
00
ff
0b
04
ff
00
fb
02
08
03
03
00
fb
0e
04
07
ff
f5
fe
f9
fb
04
03
fe
f8
f7
00
f6
04
ff
08
10
01
09
21
14
12
e7
e1
1f
ed
f4
02
f9
ff
1d
f8
ee
e0
f2
da
12
e0
03
0a
e3
e5
ed
ef
e2
fe
17
07
0a
07
18
0d
19
f5
f1
f3
22
f1
e2
04
f3
03
0d
f5
f3
dd
f0
e3
0b
e7
06
0e
e0
ea
f7
e7
f1
02
0a
07
0c
fc
0d
0e
1f
ed
08
01
24
ee
d8
fe
e1
04
0f
f4
03
ce
ef
e2
fd
fe
fd
f8
c8
f5
ee
ea
db
06
0a
16
1c
f3
1a
0b
26
ff
25
16
1c
f3
d8
fc
de
04
0c
0e
1f
e0
f4
f0
ed
0b
05
ed
b8
02
e4
05
e6
ff
04
19
45
e2
17
05
21
ed
2b
15
11
fc
d5
ff
cc
fc
0a
1f
1d
e3
f3
06
e0
0f
fe
ed
b3
15
e7
0f
d9
01
02
1e
42
da
0b
14
2f
e6
14
0d
1b
00
cd
fc
c1
05
f8
22
0c
dd
e5
fb
e6
01
ff
fb
b4
1d
e5
01
be
00
08
2f
59
df
05
0b
23
f7
05
0a
19
03
d0
fc
c8
fd
00
21
f9
e0
eb
f9
ee
f7
05
0a
c3
18
e8
f8
c1
00
0c
2a
58
e9
08
08
24
eb
f9
02
12
02
cf
00
c2
02
0a
18
fb
d2
f1
05
f8
f6
fb
06
cb
37
f4
f9
c4
00
18
21
3f
e9
fb
13
2d
e2
f7
f9
21
07
cc
fe
ca
00
17
18
f5
d5
d9
fe
f8
f4
04
06
b7
3e
dd
ff
be
ff
18
27
39
f6
fe
fb
24
e1
01
0f
18
10
cc
03
c6
04
02
2f
ed
cc
dc
0b
eb
ff
03
03
b8
41
e0
0a
e1
02
0d
2c
4a
e9
00
06
3f
e0
03
09
24
03
b1
02
ad
ff
02
37
11
d6
e0
fd
e6
fb
fb
ee
a1
34
d4
13
d6
fc
12
39
5f
e8
11
02
24
de
03
0e
0d
0a
cb
01
c5
03
eb
3f
f2
d5
f3
0f
e2
00
01
f9
bb
34
e5
15
cb
fd
0f
2b
41
ed
03
05
29
f0
0d
09
17
02
c8
04
cb
00
f2
2c
f1
d7
ee
15
ec
06
ff
f8
c7
2b
ec
03
d1
fe
12
23
47
ef
0a
04
2d
f0
1a
0e
1a
f9
d3
ff
d1
03
e5
33
ee
e8
ea
15
eb
05
04
e9
c4
39
f0
03
d6
04
1d
1e
4d
ed
01
f9
2c
ef
1d
0c
12
00
d0
04
ca
02
df
3c
06
e8
dd
16
e5
05
fe
ed
b8
35
e4
11
e3
fe
17
24
42
f1
fd
f6
20
d4
19
12
f9
10
db
03
cc
fc
ea
4e
16
dd
e5
39
d5
02
fa
f3
bc
36
fd
0c
f6
ff
fb
24
2c
04
f5
fe
30
dc
0c
09
0a
fd
c8
fd
ca
02
f8
37
04
df
ee
12
dc
f5
01
fd
d0
26
fe
f4
f1
04
1a
35
33
f4
06
fa
2a
f6
fc
0b
10
0a
de
01
bf
fc
ee
28
f5
da
f3
00
de
fd
01
12
e8
1c
fc
ee
f6
03
0b
39
2a
f9
fc
f4
17
f4
09
0e
03
0c
e9
03
d3
ff
f5
2d
f6
de
f7
05
d8
06
05
12
ee
22
f7
ef
ef
04
06
2d
24
fc
f1
0e
16
fd
05
f9
0c
f2
e4
fc
e0
01
0c
0d
19
fe
ff
fe
f2
fb
ff
0d
f6
0c
f6
fd
fd
fd
0f
18
19
f8
08
12
11
fc
f9
e8
1e
f5
f0
01
ef
fd
0f
0a
0a
ff
05
ef
f0
f6
02
04
fd
12
f8
fd
03
fe
0f
0c
10
f6
f5
f6
f8
f2
07
04
ff
0c
fb
04
fc
06
f0
05
f4
04
06
0b
f5
09
05
ff
03
0a
ff
08
02
02
f1
04
f8
fe
ff
ff
ff
fa
01
04
01
00
02
05
05
fe
fd
ff
05
fc
05
ff
00
fe
01
01
fd
03
fb
00
05
03
03
fd
00
05
00
fc
04
01
05
00
05
fc
fc
fd
fc
00
fb
fe
fb
00
05
fb
fb
fc
fd
05
03
03
04
fc
00
fd
00
fb
fd
00
fc
04
00
01
04
02
fd
ff
01
06
fb
01
02
05
fb
fb
fc
00
00
06
fd
fe
03
03
fb
01
fc
04
fd
fe
04
fb
ff
fc
05
fe
fd
03
fd
fb
ff
00
00
01
03
fd
02
fd
fb
fb
04
ff
fe
fe
fb
fb
fb
04
04
fe
03
fd
04
fe
00
01
fc
00
fd
fd
fb
04
fc
fd
fe
05
fc
01
fd
fe
01
fd
00
fe
fc
fc
04
fd
04
fd
04
04
fb
fc
02
fd
03
04
03
05
05
fb
fd
fd
fd
fc
00
03
ff
ff
00
00
fb
02
03
fc
05
fe
05
fe
00
03
fc
fb
03
fc
05
fb
03
f6
ec
f0
10
11
f0
0e
07
03
fc
02
f0
0a
ef
19
0b
0f
f5
18
00
03
04
11
07
14
f9
02
f2
fb
ed
00
00
f3
db
ee
1e
1d
db
23
12
ff
02
ff
e8
1c
ea
15
07
22
e6
26
00
fa
ff
23
0f
1a
e7
05
da
e6
de
02
f5
f9
03
e2
16
01
f9
fe
fa
fc
f8
fc
fa
28
0c
0a
09
1b
d5
01
ff
fd
f3
22
16
1e
ed
02
d3
17
08
f9
fc
fd
0a
e7
16
fc
fd
fb
f9
fc
f5
03
06
16
13
fa
fe
0d
e3
f9
01
f7
f2
13
0f
0d
ee
fd
da
17
12
fd
fd
ee
01
e1
1c
08
f2
00
f2
03
f5
fa
fd
21
1d
03
f9
21
dc
07
01
fa
f3
1e
1d
0b
f2
ff
d0
13
17
f8
ec
f6
0c
df
10
09
f4
0e
f3
ff
e8
02
01
15
1e
04
fe
16
ee
10
04
f1
ea
19
12
13
ee
fc
e6
1a
1e
f8
f3
fd
0a
cf
07
05
f8
10
f0
05
e1
fb
00
1d
f3
14
ff
03
ec
0c
fc
f4
e5
30
11
1d
e7
fb
f6
1d
1d
04
e3
08
06
c7
f9
f6
ff
0d
f5
fb
e4
03
0b
0c
f3
fb
01
fd
fd
fc
03
f7
f6
25
0e
23
e3
fb
03
12
16
01
f3
05
06
dc
fb
fc
02
0b
f6
01
e2
04
04
13
01
ee
fb
08
fc
fc
03
f3
ec
1c
0c
24
ea
05
ff
15
1c
02
ff
e8
e1
b9
1e
26
d5
31
0e
02
d8
00
fc
33
01
03
f7
32
d6
1c
fd
eb
ec
31
10
24
f8
fc
d8
10
06
ff
e9
0e
15
ce
20
0f
f5
06
e3
fd
d6
02
07
2d
25
07
f1
0e
d8
09
ff
e8
cf
25
ed
22
eb
fe
fc
32
2d
f6
f8
09
0f
f2
17
08
ff
05
ee
01
e2
02
f4
1c
1b
08
06
02
e6
06
fb
e4
d6
18
fb
26
f4
fb
fc
2e
1d
f9
0b
09
fc
e5
1f
15
f7
10
09
fe
f2
04
01
17
16
07
09
14
eb
1a
fc
e8
eb
15
07
21
f1
05
ed
20
14
f4
fe
fc
ee
c2
28
21
de
1a
0f
02
eb
03
f6
31
1d
04
f7
21
e4
22
03
ec
dd
1d
03
15
f6
01
d5
25
18
f8
f5
ff
01
d9
27
15
fe
16
f0
05
d8
05
02
26
32
08
f3
0a
e1
1c
fe
de
de
19
f1
10
f5
01
f1
31
1d
f6
00
f3
06
d6
1f
19
f3
1c
f9
fb
dc
03
04
2b
22
0c
0a
0c
e9
17
01
df
ee
1b
08
17
f7
fb
e9
2a
19
f4
0d
fa
fd
f1
03
0f
04
0e
02
06
dd
00
01
18
02
f5
02
00
f3
12
02
f2
f6
0c
08
0c
03
ff
ed
1e
13
fc
05
f2
09
ff
05
1d
fb
19
00
fc
e6
fd
f1
1b
ef
eb
f5
00
e8
22
fe
fe
f7
13
01
f3
03
00
e2
1e
15
f9
f0
ed
01
06
01
0b
ff
10
05
03
ed
fc
f4
1b
ef
f1
fc
ff
e1
10
fd
fb
f1
0e
06
f2
fc
04
f7
1f
17
f4
fb
f7
ec
fc
02
14
f8
16
07
01
00
fd
ec
19
f0
fe
fc
11
ef
18
05
00
fa
1b
02
fd
05
ff
e4
0a
0a
f4
fa
04
03
ff
ff
03
04
04
fc
00
04
03
fe
05
fc
ff
01
02
01
05
04
fe
fb
05
ff
fb
fc
ff
02
01
fe
00
fc
04
00
00
fd
fb
00
05
04
01
03
fb
03
04
fb
05
fc
02
02
02
fc
04
05
fc
fc
fb
05
01
fb
02
00
03
03
03
06
fe
fc
fd
05
03
00
fd
00
fe
fe
02
fd
04
00
fd
fb
ff
00
03
fd
00
fc
fe
00
01
03
03
fc
fb
00
01
fc
01
fe
fb
04
fc
00
fc
03
02
01
fb
03
fc
02
05
fb
ff
fb
05
fe
05
01
04
fd
04
fd
fb
fd
fe
fe
