e1
1a
ef
b0
16
0d
2c
ef
1c
25
0c
37
e7
09
d2
09
d9
f1
f8
1f
c8
de
17
25
1e
f3
ae
e0
23
0e
fa
19
d8
0e
00
a2
e7
1f
18
0c
bd
c3
1f
10
10
ad
12
25
e7
fe
a1
f1
dc
09
28
11
b8
f8
05
27
09
c6
fb
c5
10
25
c7
21
dc
01
1e
b1
c0
e3
34
16
29
1b
18
e8
ee
fc
0e
f0
ee
0b
02
10
10
f6
dc
23
1b
15
11
f9
eb
d9
fb
ab
fa
fc
f2
ee
fe
08
ff
01
0e
04
0f
09
1b
e7
0a
e9
28
b1
14
0c
fc
5b
e5
09
e7
02
f9
36
a9
06
16
eb
2d
e9
d2
d7
14
f2
20
01
cf
17
21
19
fc
ec
d8
2e
0c
a0
b5
26
17
1c
13
e4
cd
2d
e3
be
28
de
1a
05
c4
0f
f0
1f
f1
a8
22
d2
ec
02
20
19
fd
ce
23
fc
07
28
eb
e3
22
b3
f2
2e
e5
05
11
ed
07
f0
ec
f1
fd
04
09
0d
1c
f3
0e
19
81
48
fd
c9
e3
e5
db
12
f8
de
0a
21
2a
df
ed
a4
0b
bd
e1
03
e5
22
d9
14
1c
00
bb
18
ff
01
da
10
17
f5
f4
da
c4
04
4b
01
c4
fd
d6
41
bf
84
1d
c0
ef
20
d0
f3
29
c7
f3
cb
0f
ee
f1
f2
14
ed
f6
f6
08
0c
db
fb
e7
10
d9
06
da
cf
18
f9
0d
b9
fb
db
f8
02
e9
0e
ec
1f
20
e3
0a
24
b2
dd
f2
0f
f5
38
27
d9
2a
12
05
15
07
da
c8
f8
fe
b5
2b
f2
21
f2
1f
e2
9e
11
